, 982520
. 600657
的 467295
/ 404951
the 345135
， 335184
。 257003
: 256754
and 255069
) 234832
( 232399
to 205905
a 196596
of 186656
- 176856
in 162555
、 137437
1 134989
现货 133560
2 121803
和 121571
for 114162
在 110565
： 106670
3 100540
_ 100138
> 99930
包 99061
is 97841
5 94413
） 93802
（ 92208
4 81945
you 80338
您 75242
s 75085
on 74146
with 74065
t 71567
-@@ 70623
可 67146
6 66346
我们 62338
i 62223
10 60332
t@@ 59009
是 58963
酒店 58433
* 57486
k@@ 56650
女 56589
7 56471
小 54634
e@@ 54620
your 54435
器 53714
8 53641
s@@ 53250
d@@ 53139
+ 52886
年 52287
大 52086
or 51934
g@@ 51764
机 51532
手机 50907
p@@ 50008
中 49867
[ 49528
] 49173
x 49151
re@@ 49048
新款 48439
壳 48018
卡 47136
有 46890
y@@ 46685
式 46257
公司 45895
" 45874
i@@ 45849
m@@ 45506
m 45057
12 44566
裤 44433
an 44345
from 44313
are 44273
保护 43953
v@@ 43645
o@@ 43583
c@@ 43348
a@@ 43290
o 42845
贴 42534
b@@ 42362
x@@ 42321
使用 42110
3@@ 41779
f@@ 41681
免 40863
n@@ 40780
by 40461
c 40398
版 40353
人 40228
子 40079
9 40005
h@@ 39962
& 39902
台湾 39032
月 38971
at 38818
? 38807
款 38489
can 37912
l 37707
鞋 37665
new 37621
r@@ 37457
it 37289
11 37010
5@@ 36795
be 36779
你 36779
于 36743
l@@ 36516
as 36495
大@@ 36480
de@@ 35755
袋 35723
韩版 35712
多 35542
不 35469
提供 35446
g 35414
w@@ 35381
d 35239
! 35224
4@@ 35166
线 34945
this 34894
in@@ 34862
带 34209
ing 34166
防 34104
u@@ 34051
日 33937
2@@ 33876
或 33840
% 33796
盒 33749
为 33586
hotel 33551
e 33464
儿童 33291
our 33245
我 32583
用 32514
20 32400
适用 32247
可以 32116
上 32080
~ 32060
6@@ 32009
产品 31950
与 31926
运 31869
30 31800
z@@ 31558
# 31409
休闲 31362
li@@ 31358
套 31177
er 31075
b 30900
pro 30795
日本 30774
型 30757
男 30716
we 30586
时尚 30281
小@@ 30118
一 29683
到 29652
's 29572
宠物 29569
片 29464
us 29441
了 29431
j@@ 29226
home 29106
风 29104
7@@ 28855
that 28497
en@@ 28390
水 28335
色 28245
猫 28124
v 28068
al@@ 28010
一个 27786
上衣 27722
0 27606
ins 27598
运动 27460
100 27446
k 27285
all 27225
服务 27201
灯 27167
y 27164
及 27025
系列 26977
15 26930
百搭 26925
le@@ 26731
架 26668
ro@@ 26349
00 26299
车 26278
p 26221
u 26180
！ 26151
es 26031
高 25612
️ 25611
膜 25524
co@@ 25507
an@@ 25302
will 25062
n 25052
头 25041
9@@ 24888
8@@ 24871
防水 24842
.@@ 24827
ti@@ 24803
会 24747
收纳 24659
ar@@ 24633
ed 24488
se@@ 24414
0@@ 24194
韩国 24073
宽松 24041
汽车 24029
面 24020
玩具 23860
; 23844
垫 23711
礼物 23691
手 23643
装 23454
粉 23384
将 23305
w 23109
$ 23056
无 23014
✨ 22884
use 22801
10@@ 22670
' 22629
13 22577
学生 22552
男士 22425
玻璃 22384
r 22142
送 22070
more 22009
出货 21992
夏季 21944
一@@ 21834
ma@@ 21817
one 21790
请 21719
下 21611
号 21586
个 21569
as@@ 21555
夹 21534
板 21515
di@@ 21447
衣 21292
mo@@ 21181
bag 21079
新 20856
扣 20779
外套 20763
入 20703
可爱 20701
be@@ 20651
po@@ 20624
套装 20531
te@@ 20530
24 20530
制 20401
led 20326
er@@ 20300
if 20276
ts 20273
2019 20206
ri@@ 20202
布 20178
后 20177
ch@@ 20165
ted 20154
斯 20103
本 20055
st@@ 19956
全 19921
化 19809
to@@ 19777
花 19734
功能 19705
苹果 19675
not 19665
组 19632
50 19560
瓶 19500
mm 19366
lo@@ 19345
f 19344
超 19337
网站 19291
@ 19197
美国 19194
支架 19115
发 19042
光 19032
好 19003
帽 18923
hotels 18912
恤 18855
水@@ 18844
游戏 18839
have 18786
复古 18773
信息 18771
al 18755
un@@ 18658
｜ 18644
品 18615
全新 18555
克 18550
19@@ 18483
free 18479
iphone 18452
米 18414
1@@ 18399
所有 18388
pro@@ 18376
products 18376
am@@ 18373
电脑 18370
中@@ 18353
2018 18319
si@@ 18296
货 18262
stock 18258
12@@ 18222
专用 18185
小米 18157
球 18115
ad@@ 18113
出 18109
油 18089
me@@ 18082
time 18057
天 17994
18 17990
no 17959
16 17951
ready 17941
co 17899
充电 17763
短袖 17710
裙 17624
h 17605
le 17550
从 17550
力 17541
q@@ 17536
on@@ 17531
中心 17526
con@@ 17525
14 17496
并 17413
sp@@ 17407
？ 17407
安全 17372
感 17370
设计 17360
ra@@ 17298
杯 17262
长袖 17213
条 17212
de 17200
元 17100
max 17052
ers 17033
地 16989
宝宝 16961
at@@ 16958
美 16923
style 16889
家 16858
se 16820
about 16787
技术 16731
com 16702
卡通 16624
la@@ 16506
中国 16506
箱 16502
金@@ 16502
es@@ 16442
防摔 16385
如果 16383
不@@ 16340
set 16304
背包 16244
is@@ 16161
do 16071
高@@ 15991
这 15962
25 15908
位置 15902
对 15896
no@@ 15885
2020 15866
配件 15856
透气 15761
区 15706
长 15651
information 15645
or@@ 15639
饲料 15619
product 15590
cookies 15561
圈 15548
ab@@ 15501
来 15486
加@@ 15468
mi@@ 15440
工作 15438
20@@ 15411
women 15406
耳机 15359
金 15359
三@@ 15357
service 15354
cookie 15348
16@@ 15344
bo@@ 15343
ap@@ 15340
sh@@ 15325
please 15295
电@@ 15184
data 15161
its 15132
件 15065
ic@@ 15057
男女 15045
内 15025
加厚 15020
婴儿 15017
发@@ 15001
牌 14922
香 14896
代 14887
点 14855
保护套 14843
通过 14836
men 14834
usb 14831
up 14819
有限 14788
快速 14784
店 14779
30@@ 14776
时 14773
high 14762
尔 14704
床 14698
简约 14696
red 14696
2017 14690
pe@@ 14678
钥匙 14667
特 14656
数据 14630
袜 14604
2021 14577
潮 14553
ac@@ 14500
case 14471
时间 14449
th@@ 14400
room 14386
工具 14360
ation 14355
迷你 14285
40 14252
首页 14248
无线 14247
茶 14241
| 14210
contact 14210
盖 14209
棒 14167
三 14166
vi@@ 14135
系统 14107
z 14083
等 14069
do@@ 14005
15@@ 13999
has 13988
17 13944
ate 13920
服 13913
18@@ 13910
el@@ 13903
11@@ 13882
满 13807
情侣 13784
ho@@ 13751
拉 13739
之 13725
贴纸 13724
装饰 13691
以 13661
手工 13658
60 13650
衬衫 13584
th 13583
狗 13571
21 13564
花@@ 13562
女士 13526
台 13507
how 13502
靴 13499
14@@ 13493
company 13480
ex@@ 13446
电 13425
other 13361
黑 13353
通用 13348
度 13291
星级 13291
2022 13289
13@@ 13288
site 13251
白 13239
它 13208
50@@ 13202
马@@ 13185
市 13175
ag@@ 13165
双 13165
bi@@ 13165
前 13124
无@@ 13092
phone 13069
黑色 13043
网 12975
ta@@ 12963
户外 12948
量 12892
吋 12877
透明 12876
潮流 12860
size 12840
he@@ 12836
背心 12825
ly 12817
客 12796
表带 12773
diy 12771
者 12770
so@@ 12768
乳 12766
china 12752
ds 12699
卡@@ 12672
it@@ 12668
· 12663
单 12642
心 12618
cm 12601
； 12599
日@@ 12571
shoes 12570
被 12570
电子 12559
plus 12547
用品 12539
分钟 12536
any 12528
分 12527
box 12526
海@@ 12525
00@@ 12501
ne@@ 12492
22 12485
设备 12477
女生 12447
短裤 12424
加 12376
网红 12362
me 12352
美@@ 12280
联系 12275
19 12240
管 12202
us@@ 12153
糖 12097
city 12085
ter 12084
out 12079
距离 12070
air 12004
手表 11968
天然 11904
system 11891
剂 11889
家用 11859
car 11832
码 11831
其他 11817
go@@ 11786
生 11784
显瘦 11774
所 11758
刷 11753
正品 11750
免费 11738
su@@ 11679
website 11674
ltd 11663
sa@@ 11658
light 11644
business 11604
客户 11592
mar@@ 11591
2016 11588
ting 11518
新@@ 11506
石 11494
口 11455
都 11445
card 11432
国际 11405
les 11403
门 11381
自动 11357
盘 11354
部 11293
达 11291
液 11276
秋冬 11273
星 11273
拉@@ 11263
戒指 11258
17@@ 11250
分@@ 11248
最 11172
开@@ 11167
容量 11156
衣服 11150
皮 11132
链 11123
需要 11123
series 11120
显示 11108
min@@ 11106
pi@@ 11073
代购 11071
bu@@ 11067
单@@ 11015
压 10982
白@@ 10960
毛 10953
三星 10946
may 10943
零食 10920
选择 10915
able 10907
客房 10902
day 10869
光@@ 10865
纸 10864
车@@ 10857
优惠 10844
line 10832
至 10823
更多 10820
智能 10818
全@@ 10817
der 10808
不锈钢 10806
what 10803
★ 10795
价 10794
60@@ 10780
上@@ 10779
电动 10750
棉 10738
胶 10723
gi@@ 10718
清洁 10695
多@@ 10687
间 10682
短 10679
ar 10671
鱼 10668
car@@ 10663
方 10659
专业 10654
ter@@ 10647
二 10637
布@@ 10634
神器 10634
for@@ 10626
my 10618
如何 10603
支持 10600
ia 10597
mini 10565
ml 10561
金属 10548
gu@@ 10540
边 10535
镜头 10535
买 10534
da@@ 10517
ca@@ 10457
mon@@ 10454
.com 10432
was 10423
25@@ 10411
管理 10402
go 10394
任何 10390
宝 10383
tion 10374
电视 10363
防晒 10344
small 10337
pa@@ 10328
阿@@ 10321
3d 10319
fi@@ 10316
1-@@ 10312
次 10304
矽胶 10301
23 10273
原厂 10268
available 10256
利 10250
center 10241
味 10217
cover 10215
卷 10212
rooms 10193
黑@@ 10180
lu@@ 10179
il@@ 10176
小时 10166
防滑 10165
ms 10163
露 10150
创意 10145
24@@ 10142
baby 10139
物 10130
power 10121
～ 10117
罐 10102
get 10099
咖啡 10096
素 10084
电池 10080
里 10077
per@@ 10075
bed 10065
法 10057
向 10047
红@@ 10030
性 10027
❤️ 10026
q 10018
water 10008
旅行 9999
薄款 9983
also 9980
天@@ 9964
绳 9951
xr 9939
90 9936
新品 9936
包括 9934
page 9911
top 9898
t-@@ 9898
纯棉 9883
quality 9861
笔 9859
体 9853
针织 9841
巾 9823
ding 9814
te 9812
ment 9798
hi@@ 9790
best 9779
ine 9777
28 9765
山 9759
性感 9753
特@@ 9741
watch 9734
也 9716
气 9713
black 9712
平板 9706
apple 9701
80 9691
该 9685
ip@@ 9683
technology 9674
最新 9673
表 9666
位 9657
en 9645
乐 9643
香@@ 9640
ste@@ 9636
手@@ 9636
ma 9610
领 9607
international 9605
st 9601
... 9594
online 9587
书 9577
干 9569
type 9553
应用 9540
im@@ 9520
格 9515
文件 9509
手链 9504
保暖 9503
折叠 9499
项链 9498
行 9497
name 9489
安@@ 9478
ha@@ 9473
services 9469
路 9466
work 9459
尺码 9452
large 9451
内裤 9437
ba@@ 9436
个人 9431
企业 9421
br@@ 9420
特价 9419
code 9415
能 9408
white 9389
轮 9373
双@@ 9356
镜 9355
26 9348
cu@@ 9340
ver@@ 9337
级 9337
view 9337
速 9313
料 9303
machine 9292
way 9282
ke@@ 9276
拖鞋 9255
罩 9250
summer 9234
包装 9226
毛衣 9211
生日 9209
there 9200
节 9197
so 9170
斯@@ 9165
first 9154
眼镜 9147
由 9145
男生 9143
40@@ 9142
xs 9102
自@@ 9084
猫咪 9072
转 9064
纹 9056
per 9055
大学 9054
color 9050
脚 9047
km 9043
成人 9040
ge@@ 9040
活动 9037
500 9030
油@@ 9024
ls 9016
印花 8989
德 8989
s-@@ 8985
经典 8972
商品 8970
which 8957
附 8951
du@@ 8948
层 8943
design 8940
衫 8935
support 8927
人@@ 8921
mobile 8921
switch 8910
tr@@ 8907
200 8894
上网 8891
ur@@ 8887
去 8876
食 8874
霜 8861
only 8847
爱 8847
80@@ 8845
草 8844
qu@@ 8836
tu@@ 8832
am 8831
sc@@ 8818
❤ 8813
sk@@ 8809
location 8803
如 8797
大码 8795
pre@@ 8793
tions 8793
long 8789
king 8788
西@@ 8777
道 8777
批发 8774
2015 8773
有@@ 8766
个性 8748
名 8732
man@@ 8722
pc 8715
气质 8711
白色 8705
电话 8703
比 8692
世界 8691
when 8686
da 8666
学 8663
au@@ 8663
ve@@ 8659
ko@@ 8657
造型 8648
tv 8641
尔@@ 8639
座 8635
重 8560
丝 8546
就 8541
钢化 8536
期 8518
world 8502
非 8500
number 8459
馆 8456
korean 8437
policy 8430
材料 8429
房间 8424
personal 8401
除 8390
control 8388
ni@@ 8380
正 8368
长裤 8365
进行 8363
90@@ 8354
airport 8351
饰品 8343
27 8328
王 8321
tive 8313
精油 8310
高腰 8283
用户 8276
喷雾 8269
木 8263
锁 8248
id 8247
以下 8246
要 8242
ul@@ 8223
出@@ 8219
price 8215
饼 8205
合 8204
par@@ 8201
长@@ 8201
hu@@ 8200
字 8199
res 8190
99 8190
网络 8162
角 8153
fashion 8147
防@@ 8142
生@@ 8137
2-@@ 8135
28@@ 8127
价格 8127
舒适 8124
35 8122
外 8118
ps 8098
成 8087
热销 8086
必备 8081
ang 8076
果 8070
他 8065
保湿 8056
现在 8055
ga@@ 8054
仅 8039
娃娃 8034
children 8031
mu@@ 8014
抗 8004
耳环 7986
让 7984
机场 7984
years 7982
种 7977
公@@ 7971
用于 7948
米@@ 7946
方式 7930
框 7929
修身 7923
um 7919
动 7919
3-@@ 7916
图 7916
fe@@ 7904
house 7900
旅馆 7894
age 7889
健身 7856
酱 7852
d-@@ 7849
31 7841
即 7834
-0@@ 7829
开 7815
水晶 7808
ns 7808
70 7807
ipad 7798
but 7790
group 7786
wa@@ 7783
can@@ 7781
其 7760
注册 7757
ing@@ 7751
以及 7745
刀 7743
椅 7736
饼干 7735
品牌 7733
耳 7726
el 7719
area 7716
手套 7710
极 7702
木@@ 7700
牛仔 7698
肉 7698
united 7695
热 7685
version 7663
而 7663
／ 7662
机车 7641
news 7627
配 7620
leather 7616
_@@ 7616
29 7612
形 7603
宽 7596
护 7594
商 7594
5g 7592
珠 7589
维@@ 7583
la 7570
ang@@ 7570
32 7566
背 7563
张 7553
ant 7553
风扇 7552
给 7537
页 7531
他们 7522
亚 7515
man 7503
仪 7501
ve 7500
minutes 7487
na@@ 7485
地图 7485
按摩 7479
current 7475
视频 7469
ings 7464
300 7457
吸 7457
屋 7454
对@@ 7444
站 7439
delivery 7432
5-@@ 7429
200@@ 7423
☆ 7421
45 7418
连接 7413
100@@ 7412
hot 7411
超@@ 7401
www 7400
礼 7398
百@@ 7390
gh@@ 7390
here 7389
year 7385
热@@ 7376
方案 7369
类 7361
位于 7356
storage 7355
浴室 7353
第 7351
具 7349
四@@ 7346
als 7338
兰 7338
we@@ 7337
公里 7327
26@@ 7326
毛@@ 7321
梦 7316
红 7314
公寓 7300
快 7297
ol@@ 7295
自己 7289
香水 7286
23@@ 7286
than 7282
关于 7276
show 7274
tra@@ 7271
op@@ 7261
火@@ 7259
当 7255
得 7254
项目 7254
包包 7253
日系 7246
杆 7242
转@@ 7240
国@@ 7237
地@@ 7229
利@@ 7227
外@@ 7223
equipment 7221
软 7219
凉 7213
精华 7213
ity 7212
map 7197
pants 7193
ance 7193
ch 7177
场 7173
www.@@ 7161
纯 7156
狗狗 7155
可能 7153
同款 7152
蓝 7141
road 7140
菜 7127
e-@@ 7123
没有 7118
两件 7115
立 7114
门@@ 7114
五@@ 7109
pu@@ 7106
full 7098
设置 7095
ded 7092
mb@@ 7086
品质 7082
查看 7080
com@@ 7071
机@@ 7053
护@@ 7049
保@@ 7048
早餐 7041
fo@@ 7038
蛋白 7033
guests 7031
了解 7029
解决 7025
industry 7013
更 7012
海 7008
弹力 6988
文 6986
casual 6983
sion 6982
double 6976
date 6974
犬 6972
within 6964
ent 6960
their 6950
days 6948
ph@@ 6936
tes 6934
ated 6932
= 6929
已 6928
磁 6928
cor@@ 6925
筒 6924
健康 6922
什么 6917
环 6916
卫衣 6909
special 6907
折 6906
熊 6906
底 6894
most 6893
1.@@ 6886
provide 6876
龙 6874
ic 6871
老@@ 6867
management 6860
account 6854
安装 6853
每 6849
德@@ 6843
food 6841
帆布 6833
全包 6830
tri@@ 6820
used 6818
虾 6818
客人 6818
ally 6817
真皮 6814
国 6811
低 6807
音 6805
game 6803
克@@ 6798
连帽 6794
70@@ 6791
27@@ 6783
官网 6781
lin@@ 6777
春秋 6776
art 6775
os 6774
寸 6773
长款 6773
蓝牙 6768
order 6765
jo@@ 6763
更新 6760
值 6746
ta 6746
语 6733
ber@@ 6726
膏 6721
ce@@ 6714
德国 6714
ge 6714
此 6700
冰@@ 6698
马 6697
高清 6685
彩 6684
集 6683
洗 6682
主@@ 6680
标 6679
© 6679
now 6675
open 6673
回@@ 6669
steel 6664
变@@ 6662
孔 6657
key 6656
室 6646
精@@ 6644
小型 6632
空气 6626
懒人 6623
定 6615
下@@ 6614
原@@ 6614
2014 6611
like 6604
下载 6602
through 6601
排@@ 6599
针 6599
年@@ 6579
精 6573
ating 6557
邮件 6554
experience 6550
内衣 6550
清 6548
积木 6545
ments 6541
食品 6539
券 6539
这个 6539
soft 6532
袜子 6532
林 6529
ren@@ 6520
问题 6519
国家 6514
电源 6509
直接 6509
park 6502
sports 6493
波@@ 6486
合@@ 6481
打@@ 6477
内@@ 6476
科技 6475
含 6475
bar 6466
weather 6462
street 6458
州 6446
video 6441
头@@ 6438
good 6430
质 6426
official 6423
生活 6420
地址 6419
碗 6415
项 6409
自行车 6407
穿 6407
the@@ 6404
two 6401
they 6401
数 6399
ru@@ 6397
life 6392
自 6387
apartments 6383
ary 6374
make 6371
development 6367
安 6351
m-@@ 6349
after 6344
巴@@ 6337
可@@ 6335
land 6330
做 6328
总@@ 6327
need 6327
礼盒 6323
面@@ 6319
29@@ 6319
property 6319
back 6318
盆 6318
2013 6316
程序 6316
城市 6312
理 6307
手环 6304
推荐 6302
取 6302
新闻 6293
市场 6286
ten@@ 6280
next 6257
商务 6249
制造 6248
anti-@@ 6242
ec@@ 6235
2.@@ 6231
low 6224
韩 6220
ven@@ 6219
帮助 6217
成@@ 6215
vo@@ 6213
纯色 6212
鸟 6212
cotton 6210
英寸 6204
便携 6198
ju@@ 6197
ring 6188
windows 6184
short 6182
爱@@ 6170
people 6169
oil 6168
尺寸 6167
还 6165
处理 6162
质量 6159
珍珠 6155
hair 6153
皮@@ 6146
see 6146
平@@ 6138
士 6138
控制 6126
ff@@ 6122
por@@ 6117
酸 6112
政策 6112
6-@@ 6111
软@@ 6110
air@@ 6108
骨 6104
生产 6101
香港 6095
单肩 6091
气@@ 6089
table 6088
科 6086
using 6086
ir@@ 6085
枪 6083
罗@@ 6082
随身 6081
画 6081
fin@@ 6073
201@@ 6063
ty 6054
室内 6052
厨房 6049
发票 6047
提@@ 6046
ice 6044
标准 6041
热卖 6039
玫瑰 6038
限时 6036
里@@ 6035
j 6033
山@@ 6030
help 6028
gra@@ 6027
第一 6027
beach 6024
app 6015
inter@@ 6014
4-@@ 6009
半 6008
under 6002
et 6001
著 6000
亮 5999
拍 5995
动物 5990
相机 5987
假 5986
protective 5982
住宿 5979
and@@ 5967
圆@@ 5966
口罩 5960
合作 5946
线@@ 5945
在线 5945
日期 5944
》 5942
chinese 5937
奥@@ 5934
立体 5921
正版 5920
风@@ 5916
英国 5914
» 5908
just 5907
gift 5906
巧克力 5904
情 5904
起 5901
训练 5900
tic 5898
后@@ 5894
乐@@ 5884
ator 5883
展示 5875
cable 5872
ous 5857
吊饰 5848
address 5848
身 5842
cam@@ 5837
家庭 5837
pet 5831
牛仔裤 5831
want 5831
事 5821
改装 5813
秒 5811
玩 5806
绒 5806
fu@@ 5802
away 5800
豆 5798
嘴 5797
ks 5796
including 5796
ke 5795
拥有 5795
岛 5794
ou@@ 5791
kg 5788
mens 5787
钢 5780
into 5779
南@@ 5778
mp@@ 5777
electric 5776
ters 5775
mer@@ 5773
android 5772
当前 5772
围巾 5768
福@@ 5766
钱包 5759
made 5756
明 5752
根据 5750
win@@ 5748
眼 5742
房 5741
board 5738
ling 5733
好@@ 5732
洗@@ 5730
银 5728
ki@@ 5728
sub@@ 5728
进口 5724
ka@@ 5720
notice 5720
侧 5717
35@@ 5713
原装 5712
my@@ 5710
⭐ 5710
升级 5705
sts 5701
孕妇 5698
station 5693
4g 5691
men@@ 5689
本@@ 5681
ya 5680
sed 5680
麦克风 5678
美甲 5676
叶 5676
travel 5673
古@@ 5673
神 5673
access 5673
less 5664
let 5663
oppo 5663
01 5653
少女 5649
重@@ 5648
手作 5634
market 5633
鼠 5631
钻 5629
web 5627
但 5626
杀 5625
吊带 5624
son 5618
over 5615
想 5612
ze 5611
系 5608
taiwan 5606
45@@ 5606
四 5605
明@@ 5597
预购 5592
hong 5588
纳 5587
ak@@ 5586
调@@ 5583
空@@ 5580
高级 5580
胸 5577
牛@@ 5572
露营 5564
尼 5562
old 5561
购 5558
欢迎 5557
che@@ 5548
这些 5548
颗 5545
xi@@ 5544
glass 5541
凉鞋 5540
cat 5540
行业 5540
学院 5536
offers 5536
西 5533
tea 5532
女装 5530
brand 5529
率 5528
ci@@ 5526
some 5516
sal@@ 5511
he 5507
technical 5507
移动 5502
虫 5500
network 5497
store 5494
植物 5493
75 5492
last 5492
最佳 5490
single 5489
bl@@ 5488
交易 5485
蕾丝 5484
口味 5484
res@@ 5479
枕 5475
pl@@ 5471
访问 5470
前@@ 5469
潮牌 5469
通知 5469
认证 5464
° 5461
只 5460
cal@@ 5459
restaurant 5456
通 5456
纯银 5445
第三 5444
科@@ 5442
ws 5442
gen@@ 5438
protection 5436
五 5435
袖 5432
飞@@ 5428
条款 5425
flower 5421
刺绣 5418
net 5418
程 5413
主 5406
情况 5402
,@@ 5401
牙刷 5398
业 5398
把 5398
体验 5396
eng@@ 5395
film 5394
补@@ 5391
学习 5386
直 5382
塔 5381
罗 5379
材 5371
den@@ 5370
blue 5369
清@@ 5367
泥 5359
production 5359
网@@ 5357
茶@@ 5349
y-@@ 5348
黄金 5348
冬季 5348
spring 5346
设施 5346
全球 5344
果@@ 5343
冰丝 5341
直@@ 5337
privacy 5337
33 5336
sun@@ 5334
拉链 5333
ss 5331
tor@@ 5330
软件 5329
万 5328
drive 5324
screen 5323
居家 5322
accessories 5313
基 5312
sales 5312
雨衣 5310
工 5309
fl@@ 5306
两@@ 5303
伞 5301
平台 5301
states 5301
欧美 5300
comp@@ 5296
学@@ 5294
土 5290
cr@@ 5279
圆领 5269
心@@ 5259
绿 5258
微@@ 5256
such 5255
空调 5250
彩色 5248
皮革 5244
丽 5243
7-@@ 5241
360 5238
看 5238
沙发 5238
cas@@ 5235
pri@@ 5235
camera 5234
台@@ 5233
岁 5226
销售 5225
ves 5224
customer 5224
ft 5221
现 5221
dis@@ 5220
购物 5219
操作 5219
信@@ 5218
六 5214
av@@ 5206
ob@@ 5206
城 5201
火 5200
well 5197
star 5196
ev@@ 5183
shop 5180
桌 5174
2012 5172
分析 5168
super 5166
kong 5164
喷@@ 5163
outdoor 5154
test 5153
gb 5150
相@@ 5147
p-@@ 5146
组合 5144
脚@@ 5143
模型 5143
挂 5140
150 5139
添加 5138
排 5137
源 5134
take 5130
运费 5123
公仔 5120
铁@@ 5112
internet 5112
mi 5112
36 5112
10-@@ 5111
度假 5111
干@@ 5111
东@@ 5110
哥 5105
find 5105
任 5099
汤 5096
冷@@ 5092
普@@ 5091
book 5089
head 5089
bro@@ 5089
硅胶 5089
柜 5087
开始 5080
safety 5079
糖果 5075
餐厅 5072
pm 5072
像 5071
保证 5070
网卡 5053
未 5053
艾@@ 5053
office 5050
鸡 5049
和@@ 5046
相关 5046
000 5045
der@@ 5044
place 5044
限量 5042
鱼@@ 5041
发展 5038
mat@@ 5036
ying 5035
卖 5033
36@@ 5024
il 5023
吉@@ 5021
时@@ 5020
● 5015
click 5015
ning 5008
雷@@ 5008
进@@ 5005
蜡 5004
哈@@ 5003
过 5001
称 5000
固定 4999
based 4999
team 4994
获得 4993
流@@ 4986
森 4985
ton 4985
粒 4982
流 4978
® 4977
end 4973
文@@ 4972
waterproof 4969
官方 4969
na 4966
字@@ 4966
处 4966
sing 4964
肉@@ 4963
english 4962
格@@ 4962
suit 4960
肌 4960
环保 4955
gr@@ 4954
ations 4950
售 4949
ja@@ 4934
香氛 4933
名称 4932
加大 4931
辣 4927
body 4925
神@@ 4921
加绒 4916
sale 4911
根 4911
file 4911
female 4910
har@@ 4907
清新 4902
集团 4902
员 4901
all@@ 4899
女@@ 4898
tor 4896
工业 4896
ver 4895
love 4894
龙@@ 4886
沐浴 4885
点击 4885
bri@@ 4884
8-@@ 4884
内容 4883
夜 4875
wear 4873
部分 4871
ong 4869
chain 4867
< 4861
400 4859
ku@@ 4858
side 4857
定制 4855
红米 4855
38@@ 4853
each 4853
0.@@ 4850
samsung 4846
评论 4844
防护 4841
龟 4841
锅 4840
original 4839
展 4839
these 4839
bar@@ 4837
ite 4834
很 4834
own 4834
→ 4833
沙@@ 4827
编织 4827
标签 4824
who 4820
票 4817
约 4817
冰 4815
华@@ 4808
事@@ 4808
shipping 4807
窝 4805
private 4804
真 4795
战 4794
download 4793
效 4792
nor@@ 4789
口@@ 4789
便携式 4788
75@@ 4788
usd 4783
play 4781
dr@@ 4780
model 4779
放 4779
币 4777
费 4776
打 4775
《 4771
building 4771
ies 4763
green 4759
42 4757
周@@ 4757
shirt 4756
same 4754
where 4752
pen@@ 4750
数字 4747
奇 4747
精品 4747
师 4741
男@@ 4741
雾 4738
ok@@ 4734
空 4732
3.@@ 4731
开发 4729
ll@@ 4727
rec@@ 4725
55@@ 4723
ach@@ 4721
email 4721
女孩 4720
hours 4720
防撞 4714
stra@@ 4712
收@@ 4708
48 4706
测试 4704
polo 4703
yo@@ 4698
正@@ 4698
选 4697
ll 4695
综合 4694
38 4689
要求 4683
directly 4681
充电器 4680
hd 4678
伊@@ 4678
扇 4676
同意 4676
雪@@ 4669
表@@ 4668
卧室 4667
法@@ 4665
笔记本 4664
松@@ 4662
赠 4661
亚@@ 4661
mini@@ 4660
蛋 4655
刮 4654
不同 4649
情趣 4648
使 4640
弹 4639
ty@@ 4638
利亚 4637
application 4632
sleeve 4628
86@@ 4627
software 4627
care 4622
1000 4620
gold 4617
睡衣 4617
定@@ 4615
手提 4614
作 4609
购买 4609
顿 4608
水壶 4607
老 4605
快充 4601
威@@ 4599
直播 4599
ie 4599
制作 4596
供应 4596
walk 4594
键盘 4591
易 4590
口袋 4585
inn 4585
计 4580
sen@@ 4578
project 4577
rights 4575
professional 4568
night 4567
夏 4566
9-@@ 4566
解@@ 4565
88@@ 4564
两用 4563
业务 4563
桶 4562
细 4562
school 4561
预订 4557
修@@ 4554
只需 4553
ed@@ 4552
西装 4550
sta@@ 4548
sur@@ 4545
pan@@ 4543
then 4539
wi@@ 4538
短款 4537
right 4537
色@@ 4536
char@@ 4535
thin 4532
沙滩 4532
user 4532
88 4529
family 4526
包@@ 4525
ori@@ 4525
nu@@ 4522
或者 4521
块 4519
摩托车 4519
been 4519
园 4518
腿 4517
pcs 4515
超薄 4514
features 4514
蓝色 4504
wifi 4502
hand 4500
note 4497
simple 4493
ka 4492
发布 4490
姆 4486
同@@ 4486
团队 4484
基@@ 4484
酒 4481
str@@ 4472
调节 4472
sho@@ 4469
产 4469
儿 4467
up@@ 4465
净 4461
黄@@ 4458
clothes 4453
打底 4449
many 4447
南 4441
戒 4439
华 4438
lan@@ 4438
隐私 4435
分装 4433
japanese 4432
外穿 4432
经 4431
秋季 4430
安卓 4428
should 4428
倍 4427
尼@@ 4427
滑板 4427
ved 4425
连身 4424
300@@ 4421
字母 4419
皮套 4413
周边 4412
portable 4411
hy@@ 4411
贝@@ 4410
餐 4408
计划 4408
position 4404
ons 4403
range 4399
青@@ 4397
针织衫 4393
pe 4387
ser@@ 4385
mal@@ 4385
02 4384
素色 4381
蛋糕 4380
以上 4378
塑料 4373
下单 4364
主机 4361
fast 4359
located 4359
settings 4357
vr 4354
美食 4353
japan 4352
保 4352
超级 4347
re 4346
爆款 4346
7-11 4344
体@@ 4344
蓝芽 4342
tre@@ 4342
ck@@ 4340
des 4340
软壳 4338
蓝@@ 4336
national 4333
版本 4329
蚊 4328
very 4326
旅游 4325
list 4323
银@@ 4322
55 4322
ad 4321
95 4321
美容 4320
养@@ 4319
桌面 4317
】 4311
牛 4309
温 4304
共 4302
ai@@ 4297
live 4290
big 4289
环境 4288
44 4287
ali@@ 4287
sm@@ 4285
润 4284
ss@@ 4281
完成 4277
24h 4275
ji@@ 4274
喇叭 4273
天气 4272
旋转 4269
行动 4268
ago 4267
莱@@ 4265
双面 4261
上海 4261
digital 4259
雅 4256
199@@ 4255
法国 4253
galaxy 4251
二@@ 4250
交换 4249
艺术 4249
护理 4248
画@@ 4247
照片 4246
皂 4245
队 4243
boots 4240
34 4239
tool 4234
main 4234
达@@ 4231
shi@@ 4231
temperature 4230
process 4227
实@@ 4227
晶 4221
小众 4221
65 4221
玛@@ 4219
et@@ 4216
厚 4215
autumn 4212
uni@@ 4210
total 4204
牛皮 4203
巴 4202
girl 4199
防尘 4198
外出 4196
奶 4196
ny 4195
sy@@ 4195
meters 4194
作为 4192
替换 4189
computer 4187
肤 4187
ys 4184
via 4180
ts@@ 4180
holiday 4179
following 4178
意 4177
湿 4176
谷 4175
原 4172
smart 4172
这里 4172
f-@@ 4171
夫 4171
offer 4170
03 4169
欧洲 4167
尾 4167
理@@ 4166
t-shirt 4165
womens 4165
pu 4165
搭 4165
value 4164
乌龟 4161
景 4160
fa@@ 4158
方法 4157
ck 4156
业@@ 4156
酥 4150
酒精 4147
registration 4144
bur@@ 4142
烧 4140
麻@@ 4139
甲 4138
pack 4137
兰@@ 4137
专@@ 4136
о@@ 4134
发货 4133
主要 4133
自然 4132
tur@@ 4132
吊坠 4131
41 4130
terms 4129
裤子 4128
limited 4127
水果 4125
机械 4124
牙 4123
饰 4121
logo 4120
46 4119
processing 4118
成为 4117
cur@@ 4115
4.@@ 4114
ties 4113
省 4112
打底衫 4110
pr@@ 4109
real 4108
可选 4106
车用 4104
合一 4102
奇@@ 4101
ces 4100
波 4100
customers 4100
col@@ 4099
铁 4098
uses 4097
顶级 4095
note@@ 4095
制@@ 4094
ce 4094
说 4094
training 4091
雅@@ 4091
斜挎 4090
红色 4088
off 4087
create 4087
黄 4087
奖 4087
37@@ 4086
行@@ 4084
form 4084
印 4082
母 4081
实拍 4080
cute 4080
化妆 4078
支 4076
band 4075
san@@ 4075
子@@ 4072
球@@ 4072
春夏 4071
适合 4066
指@@ 4065
bo 4065
global 4065
skin 4063
用@@ 4063
手提包 4060
婚礼 4059
蜜 4057
中文 4055
natural 4054
hand@@ 4054
物@@ 4052
sti@@ 4051
鹦鹉 4050
颜 4049
游 4049
sli@@ 4047
吗 4047
material 4044
tics 4040
industrial 4039
easy 4038
43 4038
沙 4038
50ml 4037
跟 4034
礼品 4031
ry 4031
ps@@ 4030
铝合金 4029
肩 4026
陶瓷 4026
分享 4021
来自 4020
without 4018
着 4018
proof 4017
fac@@ 4015
两 4015
连衣裙 4014
inch 4013
伸缩 4013
萤幕 4010
500@@ 4005
放@@ 4005
插 4004
圆 4004
39 4004
ine@@ 4003
ye@@ 4003
腰 4002
holder 4002
迪 3997
例如 3995
face 3992
cre@@ 3991
深@@ 3990
星@@ 3989
车载 3988
ats 3986
托 3983
之@@ 3981
capacity 3978
solutions 3976
丽@@ 3974
local 3974
耳@@ 3970
益智 3970
them 3970
联 3966
marketing 3966
x-@@ 3965
十 3964
gar@@ 3963
add 3963
dress 3961
非常 3959
方便 3958
09 3956
段 3953
2011 3949
\ 3948
48@@ 3947
舖 3947
实 3945
cen@@ 3942
蓝光 3940
bal@@ 3940
south 3938
已经 3938
拆 3937
standard 3936
希望 3936
挂件 3932
仓鼠 3931
斜 3929
营养 3929
双层 3923
平 3920
点@@ 3919
66 3918
ban@@ 3917
head@@ 3915
loose 3912
hd@@ 3911
http 3909
当天 3907
pad 3906
持久 3906
device 3904
three 3903
磨砂 3902
轻@@ 3902
灯@@ 3899
创建 3897
私人 3896
调 3893
shanghai 3890
part 3889
speed 3887
最大 3886
tion@@ 3885
抓 3885
数@@ 3883
breathable 3882
促销 3881
推@@ 3875
指甲 3871
em@@ 3870
dy 3866
,000 3864
welcome 3863
限定 3861
sa 3861
every 3860
控 3858
欧 3857
保固 3855
半身 3853
圣@@ 3852
dri@@ 3851
帽子 3849
保养 3849
student 3846
xl 3846
ball 3844
真@@ 3844
接 3842
select 3842
法律 3838
配方 3837
breakfast 3836
书@@ 3835
copyright 3835
代@@ 3831
stay 3830
锭 3830
饭 3827
120 3826
条纹 3826
ming 3823
教@@ 3822
音乐 3822
路@@ 3821
и@@ 3820
bas@@ 3819
health 3819
opt-out 3819
level 3817
别墅 3816
面膜 3815
压@@ 3813
ical 3812
顶 3812
ard 3811
补 3811
uv 3811
毯 3803
display 3801
冷 3801
风格 3800
lite 3799
类型 3799
flo@@ 3798
柔软 3797
华为 3794
ga 3793
winter 3792
迪士尼 3792
毛巾 3790
37 3790
街 3790
08 3788
reno@@ 3784
胶囊 3783
酸@@ 3780
洋装 3780
家@@ 3778
二手 3773
马丁 3772
钢@@ 3772
耐 3771
薄 3769
当@@ 3769
纯@@ 3766
ana 3766
fit 3765
ai 3764
必须 3760
优@@ 3759
导@@ 3758
按 3757
限 3757
× 3756
out@@ 3754
温@@ 3750
platform 3748
google 3748
ors 3747
sun 3747
est 3744
coffee 3743
尿布 3742
present 3742
背带 3741
零钱 3741
工@@ 3740
吃 3738
东 3737
her@@ 3735
facilities 3731
yu@@ 3730
a-@@ 3730
步行 3729
投资 3729
ii 3728
万@@ 3725
军@@ 3719
团 3719
尾@@ 3717
cri@@ 3717
观@@ 3717
32@@ 3716
applicable 3716
泳衣 3714
600 3713
童 3710
家居 3710
纳@@ 3709
诺 3709
mask 3706
赛 3706
multi-@@ 3701
mis@@ 3701
safe 3701
现代 3699
64 3699
云@@ 3698
九 3697
皮鞋 3697
笔电 3696
公 3691
sto@@ 3690
di 3690
tro@@ 3690
don 3690
pure 3689
cc@@ 3688
大号 3687
tly 3686
半@@ 3686
ip 3684
微 3682
饮 3680
dra@@ 3680
密 3679
冲 3676
07 3676
mil@@ 3675
point 3673
盐 3673
05 3671
草@@ 3671
颜色 3671
65@@ 3671
地区 3671
挂@@ 3668
va 3666
高速 3665
手柄 3665
轴 3664
盒装 3663
会议 3660
塞 3659
质感 3657
buy 3655
university 3653
饱 3653
初@@ 3649
wood 3646
整@@ 3646
会@@ 3646
⚡ 3645
ial 3644
39@@ 3644
war@@ 3643
书包 3642
centre 3641
3-star 3640
直筒 3637
ne 3636
cap@@ 3636
-- 3634
季 3634
宝可 3632
再 3632
working 3631
ca 3629
她 3627
炉 3626
come 3626
wireless 3625
染 3625
活@@ 3622
泰国 3622
通@@ 3619
ses 3619
ture 3618
change 3617
客厅 3615
影 3614
首 3613
十@@ 3612
・ 3610
益 3608
pool 3608
海滩 3601
cleaning 3600
博@@ 3600
置物 3600
代码 3600
85@@ 3599
ong@@ 3595
消@@ 3593
洗发精 3593
g-@@ 3592
证 3592
anti@@ 3591
耐磨 3591
太@@ 3588
越 3588
gro@@ 3585
起@@ 3585
女性 3584
energy 3584
05@@ 3582
无袖 3581
石@@ 3581
受 3579
ki 3578
隐形 3578
便宜 3572
complete 3571
屏幕 3571
pal@@ 3571
ler 3570
活 3570
read 3570
牛奶 3570
日韩 3568
dvd 3568
应 3568
详细 3568
♥ 3567
福 3566
解 3566
square 3563
派对 3561
豆@@ 3559
北@@ 3559
ran@@ 3558
mas@@ 3558
各种 3556
security 3553
指 3552
} 3551
cro@@ 3548
250 3548
标@@ 3545
则 3543
before 3542
效期 3542
sea 3541
ant@@ 3540
新鲜 3540
info 3535
抽 3534
ra 3534
增@@ 3533
冲@@ 3531
研究 3528
media 3525
different 3525
小物 3524
public 3524
工程 3524
产@@ 3523
bel@@ 3523
鸡@@ 3523
lens 3522
高尔夫 3522
速干 3521
over@@ 3521
99@@ 3521
zed 3519
ten 3514
【 3514
socks 3513
times 3513
泡泡 3511
收集 3509
药@@ 3507
2010 3506
{ 3505
pvc 3504
new@@ 3500
his 3500
刷卡 3500
strap 3499
automatic 3498
槽 3497
橡胶 3495
must 3495
paper 3494
bb@@ 3494
优质 3493
运@@ 3492
performance 3489
对于 3489
class 3488
stri@@ 3488
under@@ 3486
作@@ 3486
接受 3484
修复 3483
能量 3482
餐@@ 3482
记 3481
示 3479
登山 3477
fil@@ 3477
bathroom 3476
强@@ 3475
网上 3473
办公室 3472
充 3470
完整 3467
康 3467
护发 3466
silicone 3465
小熊 3463
ther@@ 3457
wh@@ 3457
影@@ 3455
filter 3455
trans@@ 3454
search 3454
chi@@ 3452
mac@@ 3451
名@@ 3451
英伦 3450
fan 3450
预@@ 3450
link 3449
sting 3449
防风 3448
领@@ 3445
芯 3444
美式 3444
日式 3440
start 3438
兔 3437
metal 3434
院 3433
girls 3432
rou@@ 3432
洛@@ 3430
经@@ 3430
套@@ 3429
北京 3429
ability 3428
in-@@ 3427
shell 3426
带@@ 3425
厚底 3425
ep@@ 3423
脸 3422
lation 3421
non-@@ 3420
雪纺 3420
文化 3419
确保 3419
鞋垫 3418
06 3416
菌 3415
简单 3415
输入 3414
继续 3413
报@@ 3412
dog 3411
tt@@ 3411
提 3410
ship 3409
gg@@ 3409
接@@ 3409
尿 3406
摆件 3406
content 3405
公斤 3404
草莓 3400
mag@@ 3399
粉@@ 3397
动漫 3397
思 3397
round 3396
下午 3396
2000 3395
警@@ 3395
复@@ 3395
入@@ 3395
装@@ 3394
je@@ 3394
代表 3394
细@@ 3391
音响 3388
吃到 3387
妈妈 3386
手把 3386
奶@@ 3385
造 3384
成功 3383
section 3381
49 3381
拖 3380
our@@ 3379
que 3379
展@@ 3377
腰带 3376
创@@ 3375
47@@ 3375
助 3371
know 3371
结果 3371
mo 3369
伙伴 3369
ist 3367
发送 3367
搜索 3367
比@@ 3365
stainless 3364
ear@@ 3364
权 3363
可用 3362
跑步 3360
图案 3356
check 3355
users 3355
tools 3353
great 3353
mic@@ 3351
果冻 3351
另 3351
端 3350
space 3350
剧 3347
圆形 3344
ios 3343
会员 3343
中文版 3343
85 3342
ness 3342
march 3342
食@@ 3339
е@@ 3338
dc 3337
修护 3336
真空 3335
ker 3334
04 3334
any@@ 3333
眼@@ 3330
堂 3330
绿色 3327
ure 3327
报告 3326
parts 3325
甜 3325
套头 3322
步 3322
tic@@ 3321
透 3319
身体 3318
媒体 3317
bra@@ 3315
mon 3313
ght 3313
法式 3313
mechanism 3312
链接 3311
漆 3310
英@@ 3306
具有 3306
泽 3303
function 3303
民 3301
酒@@ 3300
gre@@ 3296
义 3296
版权 3295
visit 3294
silver 3292
视 3292
6s 3290
流行 3289
萨@@ 3289
spa 3289
游@@ 3289
先 3287
有关 3287
mer 3285
药 3285
最@@ 3284
钻石 3279
尼龙 3279
毛绒 3279
镂空 3278
接头 3277
指环 3276
建 3276
大型 3274
front 3270
普 3270
切@@ 3270
etc 3270
宝@@ 3269
信 3263
插@@ 3262
豪华 3259
ics 3258
86 3257
們 3257
紫@@ 3256
925 3255
exhibition 3254
公分 3253
太阳 3252
爱心 3252
views 3252
能够 3252
原味 3251
� 3251
交@@ 3249
音@@ 3246
夹克 3246
有线 3245
建筑 3244
近 3243
tors 3242
一些 3242
powder 3241
千 3241
400@@ 3240
卡片 3239
between 3238
骑行 3237
print 3235
强 3235
密码 3233
纤维 3232
洁 3232
request 3232
退出 3232
son@@ 3231
修 3230
烫 3229
gs 3229
天堂 3228
格子 3226
ory 3223
空间 3222
置 3221
机制 3221
弹性 3220
投@@ 3220
短@@ 3218
麦 3218
zer 3217
mac 3216
离 3216
bottle 3214
需 3213
during 3213
眼罩 3212
stand 3211
money 3211
伴 3211
materials 3210
目的 3210
lar@@ 3209
law 3207
sions 3206
实现 3206
结 3204
蜜@@ 3204
belt 3200
因为 3199
choose 3197
l-@@ 3193
女式 3192
工厂 3192
象 3192
农@@ 3190
披肩 3186
plastic 3184
bre@@ 3183
新的 3183
恩 3182
battery 3181
af@@ 3179
museum 3179
students 3178
那 3178
模式 3177
情人节 3176
公主 3175
瓜 3175
previous 3175
月@@ 3171
weight 3170
hel@@ 3170
青年 3169
休闲裤 3167
零 3167
阅读 3166
麦@@ 3165
反@@ 3165
阔腿 3164
第二 3162
碟 3160
电信 3160
浏览器 3160
授权 3159
享 3158
引@@ 3156
does 3155
sou@@ 3151
咨询 3150
篮球 3144
cartoon 3143
ko 3143
首@@ 3142
receive 3141
reviews 3140
附近 3139
灰 3136
七 3136
zz@@ 3135
mp 3135
ner 3135
屏 3135
wish 3135
shoulder 3134
西亚 3134
甲@@ 3134
app@@ 3132
温度 3127
bags 3125
方@@ 3124
楼 3124
且 3123
货@@ 3122
ol 3121
beauty 3121
大小 3121
october 3121
足 3118
pres@@ 3118
ao 3118
san 3118
47 3117
handle 3117
地方 3117
today 3115
c-@@ 3115
独立 3113
january 3112
ba 3111
束 3110
5mm 3109
得@@ 3109
开关 3108
results 3108
六@@ 3106
收 3106
頁 3105
瑞@@ 3102
烟@@ 3101
内搭 3101
关@@ 3100
suitable 3099
music 3099
壶 3099
感@@ 3098
因 3097
送礼 3096
泰@@ 3095
演@@ 3094
general 3093
剪 3091
来@@ 3090
︰ 3088
北欧 3087
✅ 3087
rate 3087
人员 3087
咬 3086
package 3085
c-f 3085
千@@ 3082
腕带 3082
四角 3082
档 3081
妆 3080
т@@ 3080
圣诞 3079
照 3078
reserved 3078
ble 3077
wide 3077
ze@@ 3077
回 3077
猫@@ 3076
足@@ 3075
传@@ 3075
紫外线 3075
north 3075
树 3074
bedroom 3073
纤 3073
conditions 3072
medical 3071
june 3071
需求 3071
pdf 3071
局 3070
闪 3069
december 3068
ving 3067
春 3067
窗 3067
bon@@ 3066
canvas 3065
配@@ 3065
piece 3065
围 3065
页面 3065
魔@@ 3064
过滤 3064
资料 3063
iphone@@ 3062
waist 3061
web@@ 3058
不是 3058
22@@ 3056
country 3056
然后 3056
补充 3054
中华 3054
纸@@ 3052
all-match 3052
止 3051
nail 3048
秋冬季 3048
photo 3047
运动鞋 3047
防疫 3047
backpack 3046
work@@ 3046
tel 3046
files 3046
fer@@ 3044
72 3044
ken@@ 3043
tnt 3042
雪 3040
钓鱼 3040
销 3040
i7 3039
‼ 3038
tech 3037
below 3037
丁 3036
46@@ 3035
research 3035
beijing 3033
thing 3032
平均 3032
生物 3031
high-@@ 3029
吸@@ 3029
爆 3027
american 3026
month 3026
med 3026
ultra 3026
紧身 3024
冰箱 3024
'@@ 3022
击 3021
用途 3021
知道 3020
sticker 3019
exchange 3019
饮料 3018
钱 3017
绿@@ 3016
cc 3015
ly@@ 3014
欲 3014
合金 3013
创新 3013
摩@@ 3012
wall 3012
短靴 3012
rates 3012
检测 3011
常@@ 3011
力@@ 3010
solution 3007
北 3007
program 3007
provides 3007
wor@@ 3006
战@@ 3006
乐高 3006
基于 3006
医疗 3005
均 3004
april 3004
party 3003
图@@ 3001
春@@ 3000
延长 2999
pla@@ 2996
快@@ 2996
章 2995
cup 2995
声 2995
转换 2993
details 2992
夹@@ 2991
最好 2990
最后 2989
设有 2989
挂绳 2988
鸭 2987
look 2986
目 2985
fitness 2984
试@@ 2981
娜 2981
ung 2980
swe@@ 2980
皮带 2979
野@@ 2979
朋友 2978
拼图 2977
type-c 2974
安全帽 2973
麻辣 2973
有效 2973
经验 2972
vivo 2971
dy@@ 2971
滑@@ 2971
三角 2970
len@@ 2970
cho@@ 2969
甜@@ 2967
bus 2967
经济 2967
贴膜 2965
2008 2964
随@@ 2964
log@@ 2964
点心 2962
加拿大 2962
超过 2962
仿真 2961
supply 2957
pa 2957
发夹 2956
star@@ 2953
广告 2953
规 2950
2-star 2950
lo 2949
2009 2948
棉@@ 2945
博 2945
central 2944
母@@ 2942
话 2942
写 2942
完美 2941
ster 2940
average 2938
很好 2937
藏 2935
send 2935
教 2935
ans 2934
前往 2933
甜美 2932
latest 2931
down 2931
cloth 2931
碳 2930
重要 2930
磨 2929
cl@@ 2928
欧@@ 2927
能力 2927
ben@@ 2924
bul@@ 2924
列 2924
腰包 2922
ji 2922
蝴蝶结 2921
进 2919
轮胎 2919
home@@ 2919
garden 2918
kids 2917
ade 2917
助@@ 2917
district 2917
玩偶 2916
男装 2916
运行 2914
注意 2913
拼接 2912
tal@@ 2911
静音 2910
范围 2910
毫米 2909
resort 2909
toys 2908
wing 2907
bs 2906
印度 2906
除臭 2905
i8 2905
苏@@ 2904
li 2904
b-@@ 2904
bank 2903
意大利 2903
士@@ 2902
挡 2901
а@@ 2901
服装 2900
低@@ 2900
xi 2899
梅@@ 2899
股份 2899
fication 2898
golf 2898
吊@@ 2897
ina 2897
enjoy 2896
传统 2894
の 2893
ham@@ 2892
apartment 2892
han@@ 2892
库 2891
minute 2890
射 2888
加入 2888
蜡烛 2886
商业 2885
铜 2884
id@@ 2884
30ml 2883
september 2883
nike 2882
墙 2881
建议 2881
't 2880
quick 2878
泡@@ 2878
why 2878
sony 2874
€ 2874
hdmi 2873
12-@@ 2872
脂 2871
海绵 2870
富@@ 2870
資 2870
述 2869
stone 2868
ast 2868
shower 2868
妹 2868
记录 2867
柱 2865
工装 2863
west 2863
goods 2862
52 2862
lar 2861
材质 2861
cream 2860
genuine 2859
factory 2859
pic@@ 2858
备 2857
瓦@@ 2856
公园 2856
pressure 2854
around 2854
册 2853
田 2853
描述 2853
电影 2852
酵素 2852
以@@ 2852
bio@@ 2851
coun@@ 2851
暖 2850
猪 2848
固@@ 2847
课程 2846
door 2845
私密 2845
jacket 2843
底@@ 2842
july 2842
港 2841
w-@@ 2839
stickers 2839
长裙 2837
stars 2837
马桶 2836
吹风机 2836
toy 2834
螺@@ 2834
atlas 2834
cli@@ 2833
ak 2833
club 2833
0-@@ 2832
luxury 2831
鱼缸 2831
曲 2831
600@@ 2830
st-@@ 2829
systems 2829
美元 2829
胸@@ 2827
无痕 2827
螺丝 2826
3m 2825
98 2825
ds@@ 2824
ino 2823
控制器 2823
化@@ 2823
曼 2823
矿@@ 2822
耐@@ 2822
灵 2821
♂ 2820
browser 2820
梳 2818
抗菌 2817
泵 2817
语言 2817
可调 2813
喜@@ 2812
咖啡@@ 2812
聚@@ 2811
凯@@ 2811
field 2809
800 2809
val@@ 2808
相 2808
保健 2806
eye 2805
clo@@ 2804
ping 2802
ise 2802
五分 2801
折扣 2801
干燥 2799
同时 2799
马甲 2798
丝@@ 2797
trade 2795
滑 2795
™ 2795
各 2794
便 2794
tan@@ 2793
见 2793
凉@@ 2792
鞋@@ 2791
super@@ 2791
report 2790
简@@ 2789
4-star 2788
classic 2787
双肩包 2787
炼 2786
tube 2784
anc@@ 2783
watch@@ 2781
氧 2781
酷 2780
找到 2777
储值 2776
little 2775
淋浴 2775
vpn 2775
获取 2775
乳清 2773
西班牙 2773
全屏 2772
王@@ 2771
喷 2770
上市 2770
с@@ 2770
特别 2768
离@@ 2768
开车 2768
appro@@ 2768
mb 2767
有机 2767
基础 2767
her 2764
❗ 2764
ents 2763
轻 2763
办公 2762
注@@ 2762
勒 2762
水洗 2761
port 2759
托@@ 2759
赛@@ 2759
living 2758
iphone12 2758
虎 2757
历 2757
英文 2756
xiaomi 2755
是否 2755
磨@@ 2753
november 2753
商@@ 2749
梅 2748
增高 2747
bracelet 2746
dd@@ 2746
transfer 2746
支付 2746
100ml 2745
每个 2745
变 2744
core 2743
私@@ 2742
背景 2741
多色 2740
acc@@ 2740
同 2739
优 2735
夏天 2734
过@@ 2734
ash@@ 2732
gas 2731
ig@@ 2731
洋气 2730
ani@@ 2730
底座 2730
electronic 2729
ace 2729
童@@ 2728
多种 2727
红茶 2726
inc@@ 2725
八@@ 2725
adult 2724
io 2724
萨 2724
雨 2723
button 2722
草本 2722
列表 2721
维修 2719
晶@@ 2716
莫@@ 2716
stick 2715
120@@ 2712
bit@@ 2712
舞 2712
丝巾 2711
区域 2711
include 2708
行李箱 2706
sim 2706
组织 2706
ac 2705
ill 2703
维 2701
＊ 2700
frame 2699
kitty 2698
個 2697
bit 2695
基本 2695
york 2695
住 2695
67@@ 2694
深圳 2694
斤 2693
8plus 2693
games 2692
选@@ 2692
运营 2692
切 2691
并且 2691
hard 2689
动@@ 2689
x3 2685
zh@@ 2684
pink 2684
保温 2684
ms@@ 2683
pay 2682
asia 2682
迪@@ 2682
携带 2680
元@@ 2679
mark 2679
伯@@ 2679
floor 2678
ked 2678
wi-fi 2677
换@@ 2676
背@@ 2675
months 2674
dor@@ 2674
男鞋 2673
致 2673
ari@@ 2673
意@@ 2673
person 2672
mit@@ 2672
call 2672
远@@ 2671
飞机 2671
汤@@ 2670
skirt 2669
micro@@ 2669
花园 2668
女款 2667
女鞋 2667
遮阳 2665
venue 2665
н@@ 2665
時 2664
智慧 2662
heart 2661
纸巾 2661
彩@@ 2658
反 2656
s925 2655
性能 2653
粮 2652
changes 2652
server 2652
一种 2652
pin 2651
object 2651
au 2650
realme 2649
邮@@ 2647
订单 2647
享受 2647
亮@@ 2646
wal@@ 2645
嘻哈 2645
做@@ 2645
载 2645
art@@ 2643
服务器 2643
资源 2643
fre@@ 2641
自拍 2640
hi 2640
second 2640
柔 2640
66@@ 2639
胡@@ 2638
back@@ 2638
share 2637
短裙 2634
降@@ 2634
february 2634
执行 2634
推 2633
ned 2632
领域 2632
磅 2631
凝胶 2631
solid 2628
厂 2628
更改 2628
圣 2627
历史 2627
ore 2626
发光 2626
800@@ 2626
缘 2626
kitchen 2625
daily 2625
hon@@ 2623
pieces 2622
银行 2622
modern 2621
兔子 2621
项圈 2620
澳洲 2620
learn 2620
sw@@ 2618
example 2618
boo@@ 2617
sport 2617
推广 2616
触@@ 2615
ful 2615
produc@@ 2614
sp 2613
友 2613
洋 2612
member 2612
33@@ 2610
菲@@ 2610
封@@ 2607
周 2607
索@@ 2607
吸水 2607
超大 2604
一页 2604
卖场 2603
50g 2603
max@@ 2603
while 2603
轮@@ 2602
军 2602
歌 2602
链条 2601
stock@@ 2600
泰迪 2600
免@@ 2600
胶原 2600
配置 2600
needs 2600
费用 2600
手动 2599
town 2599
深 2597
套房 2597
钉 2595
烘焙 2594
rubber 2593
村 2593
universal 2592
press 2592
hk 2592
状 2591
塑胶 2590
69 2589
叶@@ 2589
charging 2589
500ml 2588
得到 2587
л@@ 2586
思@@ 2585
both 2585
61 2584
fla@@ 2583
隔 2582
pat@@ 2580
技 2580
ata 2579
cla@@ 2578
堡 2577
纱 2575
代理 2575
轻松 2574
creative 2573
玉 2573
charge 2572
pas@@ 2572
教育 2571
enterprise 2570
数量 2569
base 2568
太 2568
11-@@ 2568
play@@ 2567
阳 2567
乳液 2565
vol@@ 2565
dic@@ 2563
账户 2563
stu@@ 2562
zing 2561
one-@@ 2560
样 2560
ery 2559
tru@@ 2559
笼 2559
vision 2558
富 2558
包含 2558
villa 2558
亚洲 2557
员工 2557
摄像头 2556
oc@@ 2556
cra@@ 2555
蒂 2555
detailed 2554
plu@@ 2553
5ml 2553
瑜伽 2553
检查 2553
ensure 2553
灵@@ 2552
诺@@ 2552
cp 2551
申请 2551
trendy 2550
four 2549
foot 2548
供 2548
min 2548
缸 2547
消毒 2547
吧 2547
audio 2545
街头 2544
野 2544
trading 2544
purposes 2544
雨@@ 2543
pt 2541
51 2541
would 2541
仿 2540
全家 2540
force 2540
source 2539
ax@@ 2538
even 2538
pc@@ 2537
fish 2537
gen 2536
云 2534
august 2534
只有 2534
в@@ 2533
舒@@ 2532
英 2532
植 2531
tho@@ 2531
付款 2531
佛@@ 2530
20-@@ 2530
拿铁 2530
tele@@ 2529
素@@ 2528
康@@ 2527
key@@ 2527
这@@ 2527
sexy 2524
above 2524
开衫 2523
edition 2522
保存 2522
关 2522
外壳 2521
汁 2521
凳 2520
付 2520
条件 2520
fy 2519
tal 2519
到达 2519
kin@@ 2517
state 2515
eur 2515
gh 2514
ders 2514
采用 2514
遥控器 2512
shenzhen 2512
try 2511
枕头 2510
管@@ 2510
ah 2510
ple@@ 2510
声明 2510
照@@ 2509
ger@@ 2508
最高 2508
fresh 2507
touch 2506
孩子 2506
仙@@ 2506
zation 2505
ates 2505
加工 2504
分类 2503
发饰 2503
popular 2502
sha@@ 2502
sive 2502
无限 2502
flat 2501
严选 2501
超商 2501
接收 2500
retro 2500
柔@@ 2499
牙@@ 2499
陆龟 2499
公克 2499
direct 2498
cap 2498
course 2496
音频 2494
ng 2494
flu@@ 2492
language 2492
vest 2491
tw@@ 2490
喜欢 2490
fr@@ 2488
易@@ 2488
轻便 2487
主题 2487
篮 2486
child 2484
68 2484
之间 2484
korea 2483
身@@ 2481
在@@ 2479
玉@@ 2478
印@@ 2476
招财 2476
電 2476
collection 2473
尺 2473
预报 2473
79 2472
佳 2472
oper@@ 2472
准 2471
pd 2469
don@@ 2468
desk 2468
知 2468
份 2467
擦 2466
action 2466
速@@ 2466
tar@@ 2465
硬 2465
威 2464
结@@ 2463
49@@ 2460
萃 2460
guest 2458
看到 2458
土@@ 2457
卫生棉 2457
é 2456
美白 2455
pul@@ 2454
扩 2453
期限 2451
booking 2451
选项 2450
． 2449
新加坡 2449
跳@@ 2448
别 2448
wallet 2447
八 2447
务 2447
绑带 2446
social 2446
1000@@ 2445
household 2445
酒吧 2445
ley 2444
指定 2444
船 2443
宫 2442
ars 2442
劲 2442
ff 2441
5.@@ 2440
step 2439
sco@@ 2438
since 2438
虾皮 2437
循环 2437
导 2436
tional 2436
events 2436
星期@@ 2436
雨伞 2435
67 2434
数据线 2433
过程 2433
两个 2432
plan@@ 2431
暖@@ 2430
具体 2430
一般 2428
release 2425
east 2423
靠@@ 2422
瓦 2421
ach 2420
construction 2420
ess 2419
调整 2419
加长 2419
77@@ 2419
4k 2418
摄影 2417
柠檬 2417
304 2416
ha 2416
sweater 2415
爆@@ 2415
帐号 2414
男孩 2412
速度 2412
https 2412
砂 2411
竿 2411
入住 2411
plate 2410
春季 2410
砖 2409
cat@@ 2409
裙子 2409
设 2408
54 2407
鲜花 2407
报 2407
抖音 2406
船@@ 2406
塞@@ 2405
洗车 2404
mit 2403
lock 2401
magnetic 2399
climate 2399
阿 2397
贝 2396
机器人 2396
vir@@ 2395
cd 2394
浴巾 2394
爬虫 2394
58 2393
業 2393
屁 2392
吉 2392
國 2391
厂家 2390
民@@ 2388
吉他 2387
鲜 2386
节@@ 2386
applications 2386
新生儿 2385
颗粒 2384
loss 2383
於 2383
开口 2382
kar@@ 2382
推车 2382
泡 2382
extra 2381
tab@@ 2381
反光 2381
烤 2379
显@@ 2378
抱枕 2378
clothing 2376
社会 2376
极@@ 2375
监@@ 2373
ghts 2372
清洗 2372
洗发 2372
ue 2371
竹 2371
脚架 2370
金色 2370
连体 2370
佳@@ 2370
抽@@ 2368
ber 2368
铝@@ 2368
ur 2367
89@@ 2367
bath 2366
text 2365
电竞 2365
comfortable 2361
21@@ 2361
yuan 2359
ix 2359
就是 2358
采@@ 2358
brush 2358
留@@ 2358
clear 2357
优雅 2357
持续 2357
ash 2356
win 2356
rela@@ 2356
眼影 2355
56 2355
hostel 2355
羊毛 2354
登 2354
一次性 2352
帮 2352
wn 2352
protector 2351
第@@ 2351
aluminum 2350
固 2350
皆 2349
event 2349
桑@@ 2348
团购 2348
闺蜜 2348
末 2348
lam@@ 2347
联@@ 2347
量@@ 2347
风味 2347
務 2347
male 2346
马来 2346
ase 2346
works 2346
宠 2346
網 2346
垫@@ 2344
烟 2344
questions 2344
iso@@ 2343
洗澡 2343
钙 2342
塔@@ 2342
蜂@@ 2341
斗 2341
言 2340
显 2339
guide 2338
共@@ 2338
培训 2338
cy@@ 2338
202@@ 2337
音箱 2337
鸡肉 2337
水族 2336
编 2336
撞色 2335
浏览 2335
110 2334
m2 2334
道@@ 2334
座椅 2334
鲜@@ 2333
纽约 2333
航@@ 2332
弹@@ 2332
宝贝 2331
87@@ 2331
close 2331
商店 2331
iphone11 2331
premium 2330
block 2330
社 2329
cloud 2328
legal 2328
准确 2328
review 2328
料理 2326
衣柜 2326
魔 2326
未来 2326
坊 2325
機 2325
充气 2324
perfect 2324
tt 2324
hat 2323
clip 2323
ct 2323
河 2322
hosting 2322
heating 2321
hun@@ 2320
ches 2318
za 2318
fully 2318
crystal 2317
百 2316
sel@@ 2315
胶@@ 2314
胶带 2314
目前 2314
恐龙 2313
盖@@ 2313
sam@@ 2312
facebook 2312
总 2311
macbook 2311
阳台 2311
韩系 2311
sure 2310
兴 2309
裤@@ 2308
airpods 2307
派 2307
cool 2306
提高 2305
sandals 2304
sum@@ 2304
为了 2304
计@@ 2303
唇膏 2303
spo@@ 2303
lego 2303
补水 2302
工艺 2301
治 2301
ps4 2301
视@@ 2300
男款 2299
介绍 2299
iron 2298
kit 2298
粉色 2297
--@@ 2297
舒 2296
专利 2296
目标 2296
过滤器 2295
声@@ 2295
180 2295
spe@@ 2295
browse 2295
£ 2293
保险 2292
french 2292
货币 2292
會 2292
遥控 2291
discount 2290
不会 2290
dry 2289
tb 2289
港风 2289
奶油 2289
紧@@ 2288
模@@ 2286
post 2286
主页 2285
gener@@ 2284
bun@@ 2282
layer 2282
保持 2282
刀@@ 2281
净@@ 2281
刷毛 2281
男性 2280
湖 2280
sl@@ 2280
摇@@ 2279
实木 2277
电镀 2277
yo 2276
蝴蝶 2275
虚拟 2274
150@@ 2273
益生菌 2273
53 2273
华硕 2272
62 2271
林@@ 2271
ger 2270
女童 2269
domain 2268
stre@@ 2265
桌@@ 2265
结构 2265
packaging 2264
舒缓 2264
取@@ 2264
低音 2263
operation 2263
63 2263
lamp 2262
一篇 2262
独家 2261
singapore 2261
speci@@ 2260
滤 2260
provided 2260
consi@@ 2260
薄荷 2259
胖 2259
今天 2259
像素 2258
pos@@ 2257
电缆 2256
散热 2255
应@@ 2255
payment 2254
options 2252
之前 2252
文章 2251
59 2250
ele@@ 2249
自由 2249
hello 2248
全部 2248
59@@ 2248
专柜 2247
探@@ 2246
wil@@ 2246
闪@@ 2245
credit 2245
yi@@ 2245
加热 2245
满@@ 2244
boys 2243
液晶 2243
赏 2242
den 2241
tation 2241
双人 2241
这样 2241
摩 2240
various 2240
藻 2240
fine 2239
read@@ 2238
模 2238
河@@ 2238
便@@ 2237
注 2237
companies 2236
125 2234
睫毛 2234
不用 2234
素面 2232
蒙@@ 2232
影响 2232
随机 2230
wire 2229
养 2228
tin 2228
型号 2228
韩@@ 2228
coat 2227
investment 2227
running 2226
差 2226
清净 2226
香薰 2226
open@@ 2226
％ 2226
立@@ 2225
桌游 2225
tial 2225
敏 2225
莓 2225
席 2224
很@@ 2224
主食 2224
符 2223
为@@ 2222
四季 2221
面罩 2221
皮夹 2221
关注 2221
silk 2220
pt@@ 2220
恢复 2220
行车 2219
品@@ 2219
mah 2217
tran@@ 2217
glasses 2216
评价 2216
增加 2215
hal@@ 2214
ir 2214
怪 2214
港@@ 2214
送@@ 2214
friends 2214
老人 2213
all-@@ 2212
bus@@ 2212
ex 2212
required 2212
正在 2212
mus@@ 2211
keep 2211
爪 2211
永@@ 2210
修改 2210
各@@ 2210
冷冻 2207
礼服 2206
收藏 2206
hour 2206
关系 2206
financial 2206
们 2206
特殊 2205
炸 2205
薄@@ 2204
环@@ 2204
皮肤 2203
即可 2203
之一 2203
were 2203
厅 2202
1,@@ 2202
forecast 2201
穿@@ 2200
length 2199
浮@@ 2199
shopping 2197
las 2196
古 2196
article 2194
island 2193
滤网 2193
典 2193
better 2193
识 2192
隔@@ 2191
伤 2191
数码 2190
active 2190
额 2190
possible 2190
suite 2188
100g 2187
fun@@ 2186
平衡 2185
鬼 2185
2019-0@@ 2184
奶茶 2183
00-@@ 2183
mor@@ 2183
秋@@ 2183
「 2183
机构 2183
boutique 2182
味@@ 2182
culture 2181
秋 2181
lies 2181
输出 2180
激@@ 2177
neck 2177
彩虹 2177
键 2176
fle@@ 2176
studio 2175
uk 2175
ro 2174
iting 2173
roo@@ 2172
transparent 2172
手提袋 2172
are@@ 2172
成本 2172
图片 2171
110@@ 2170
登录 2170
减@@ 2169
飞 2169
mg 2168
ric@@ 2167
升 2166
存储 2165
气垫 2165
宽@@ 2165
病 2165
lit@@ 2164
众 2164
ack@@ 2163
’ 2163
89 2163
简 2162
史 2162
meeting 2162
mode 2162
价值 2162
gt@@ 2160
57@@ 2160
一家 2160
suites 2160
粗 2159
覆盖 2159
丹 2159
花店 2158
吸尘器 2158
fit@@ 2157
夏@@ 2156
ok 2156
e.g. 2156
gifts 2155
禁@@ 2155
enter 2155
shorts 2154
班 2154
instance 2154
司 2153
indoor 2152
bor@@ 2152
engineering 2152
api 2152
频 2151
泡面 2151
」 2150
aw@@ 2149
fir@@ 2149
插座 2148
小孩 2148
异@@ 2148
third-party 2148
旧 2147
plan 2147
updates 2147
存 2147
act 2146
松 2146
接口 2145
氏 2145
高档 2145
为什么 2145
generation 2144
碎 2143
读@@ 2143
血@@ 2142
莉 2142
att@@ 2142
image 2140
届 2139
令 2139
利用 2139
世@@ 2138
2s 2138
远 2138
俄罗斯 2138
鸭@@ 2138
decoration 2137
lic@@ 2137
items 2136
鞋子 2136
专家 2136
锁@@ 2135
燃@@ 2135
例 2135
she 2135
录@@ 2134
改@@ 2133
仔 2133
conditioning 2132
fe 2131
beautiful 2130
nan@@ 2130
水杯 2130
宿舍 2130
公共 2130
間 2130
无法 2129
痘 2129
知识 2129
warm 2127
动态 2127
environment 2127
500g 2125
related 2125
－ 2125
產 2125
inte@@ 2124
请求 2124
gri@@ 2123
珠宝 2123
应该 2123
diamond 2121
too 2121
市@@ 2121
manufacturing 2121
remote 2120
手持 2120
素食 2120
乌@@ 2119
乳@@ 2119
杂@@ 2118
面包 2118
一体 2117
街@@ 2117
eli@@ 2116
zhou 2116
胎 2115
million 2115
英语 2114
stop 2114
ton@@ 2114
满足 2113
蒂@@ 2113
apply 2112
ef 2112
multi@@ 2112
航空 2112
education 2112
每天 2112
unit 2110
角色 2110
cn 2110
持 2109
编@@ 2108
usa 2108
模具 2108
效果 2108
fur@@ 2107
auto@@ 2107
owned 2107
inc 2107
photo@@ 2106
证书 2106
胜 2105
打孔 2104
阀 2104
clean 2104
bed@@ 2104
按钮 2104
cer@@ 2104
必 2104
志 2103
术 2103
发现 2102
帘 2101
ml@@ 2101
餐具 2101
平底 2100
游泳 2099
建立 2099
满额 2099
琴 2098
良 2098
fied 2097
角落 2097
purchase 2095
eas@@ 2095
advanced 2095
它们 2095
课 2094
测@@ 2094
享用 2093
down@@ 2092
落 2090
衬衣 2090
讯 2090
к@@ 2090
eva 2089
腰@@ 2088
equ@@ 2088
6.@@ 2087
bluetooth 2086
asus 2086
confi@@ 2086
micro 2085
秀 2085
hotel@@ 2085
辅助 2084
久 2084
stor@@ 2084
长期 2084
痛 2083
maintenance 2083
灰色 2082
bay 2082
封 2082
host 2081
save 2081
铝 2080
集@@ 2078
medi@@ 2078
露@@ 2077
italy 2077
tpu 2077
european 2076
ao@@ 2076
message 2076
australia 2075
cost 2075
mic 2074
pay@@ 2074
辣@@ 2074
machinery 2074
gin 2072
限@@ 2072
devices 2069
认@@ 2069
mes 2068
交通 2068
所以 2068
slim 2067
碳@@ 2067
零件 2065
方面 2065
因此 2065
宝石 2064
stro@@ 2064
tain 2063
寄 2063
making 2062
亲 2062
ants 2061
瑞 2061
♡ 2061
道具 2060
sch@@ 2060
structure 2060
进入 2058
parking 2056
dr 2056
录 2056
火锅 2055
350 2055
ick 2053
明星 2053
联络 2053
avenue 2053
景点 2053
fashionable 2052
laptop 2052
群 2052
deli@@ 2051
ku 2051
学校 2051
砂@@ 2049
行李 2048
硬@@ 2048
甘@@ 2048
滑鼠 2048
尽@@ 2048
player 2047
捷 2047
collected 2046
筒袜 2046
约@@ 2046
刻 2045
发圈 2045
混@@ 2045
ire 2045
requirements 2045
包臀 2044
杜@@ 2044
尼亚 2044
比赛 2043
适配器 2043
走@@ 2043
泡沫 2043
dh@@ 2043
focus 2042
钓@@ 2042
家具 2039
mat 2037
serv@@ 2037
圣诞节 2035
treatment 2035
硬壳 2035
berry 2034
脆 2034
防震 2034
准备 2034
鲁@@ 2034
出售 2034
canada 2034
agent 2032
诗 2032
pra@@ 2031
坐@@ 2031
because 2031
串 2030
完全 2030
售@@ 2029
rentals 2029
电动车 2028
van@@ 2028
美丽 2028
十二 2027
超值 2027
tter 2027
其中 2027
剪@@ 2026
le-@@ 2026
pp 2026
感应 2026
奥 2026
卫星 2026
混合 2025
烘 2025
科学 2025
strong 2024
happy 2024
hol@@ 2024
耳钉 2024
飞利浦 2024
流量 2022
高效 2022
订制 2021
尿@@ 2021
ence 2020
勺 2019
洗衣 2018
新年 2018
give 2018
海洋 2018
锁骨 2018
iso 2018
境 2018
dishes 2018
2007 2018
lot 2017
gt 2017
棉花 2017
丸 2017
lab@@ 2016
棉麻 2016
dge 2016
pendant 2015
谱 2015
算 2014
珠@@ 2014
浴 2014
宁 2014
america 2014
consult 2013
案 2012
box@@ 2012
删除 2012
吸管 2011
域 2011
surface 2010
刷@@ 2010
方形 2009
除@@ 2009
option 2008
咖 2008
oo@@ 2007
hor@@ 2007
夜@@ 2007
xbox 2007
号码 2007
激光 2005
bear 2003
足球 2003
曼@@ 2003
tures 2003
启动 2003
帅气 2002
colors 2002
future 2002
帐户 2002
定义 2001
yellow 2001
少 2001
ti 2000
郎 2000
manager 2000
手镯 1999
床@@ 1999
comments 1999
买@@ 1999
rental 1999
资 1998
话@@ 1998
meet 1997
镀膜 1996
鹿 1995
联盟 1995
兼容 1994
密@@ 1994
虎@@ 1993
tical 1993
always 1993
84 1993
打开 1993
no. 1993
slo@@ 1992
案例 1991
wo@@ 1990
types 1990
chic 1990
桥 1990
history 1990
é@@ 1990
12v 1988
资讯 1988
特惠 1987
族 1987
允许 1987
tte 1986
塑 1985
听 1983
幼儿园 1982
tee 1981
玛 1981
核心 1981
ini@@ 1981
贴@@ 1980
储@@ 1980
tour 1980
丰@@ 1979
遮@@ 1978
slippers 1978
wel@@ 1978
订 1978
57 1977
创 1976
k-@@ 1976
ston 1975
紫 1975
eng 1974
iphone13 1974
麻 1974
д@@ 1974
湿度 1973
塑@@ 1972
广@@ 1972
activities 1972
追@@ 1971
rest 1970
食物 1970
thick 1969
花朵 1969
全自动 1969
铺 1969
联名 1969
book@@ 1968
罐头 1968
重复 1968
comes 1968
湿巾 1967
一起 1966
method 1966
update 1966
ven 1965
10ml 1965
洗衣机 1965
handmade 1964
free@@ 1964
water@@ 1963
出于 1963
承@@ 1962
谁 1962
lee 1961
帕@@ 1960
套件 1958
礼@@ 1958
起司 1958
通话 1958
printing 1957
椒 1957
2018-0@@ 1957
模块 1956
幼儿 1955
cs 1955
少年 1955
亲@@ 1955
ال@@ 1955
wan@@ 1954
洛 1954
fire 1953
ves@@ 1953
高跟鞋 1952
斯特 1951
托特 1951
列出 1951
off@@ 1950
最多 1950
wa 1950
updated 1950
rose 1949
拍照 1949
搭配 1948
according 1948
fiber 1947
96 1947
^ 1947
corporate 1946
coin 1945
米奇 1945
扩展 1945
swimming 1945
毕业 1945
icp 1945
continuing 1945
拿 1944
repair 1944
职业 1944
applies 1944
摆@@ 1943
照明 1943
lines 1942
bat@@ 1942
college 1942
feed 1942
每@@ 1941
fore@@ 1941
救@@ 1941
77 1941
91 1941
断 1941
no.@@ 1941
hot@@ 1941
rice 1940
趾 1938
备@@ 1938
头发 1937
lt@@ 1936
87 1935
抗@@ 1935
洞 1934
one@@ 1934
高度 1934
sd 1934
florist 1934
最低 1934
grand 1934
accommodation 1934
换 1933
协议 1933
dro@@ 1932
负@@ 1932
提升 1932
℃ 1932
001 1931
igh@@ 1931
铃 1931
调理 1931
cafe 1931
◆ 1931
建@@ 1931
游泳池 1931
强力 1930
坐落 1930
决@@ 1929
姜@@ 1929
棉质 1928
van 1928
整理 1928
mt@@ 1927
underwear 1926
原创 1926
ality 1926
仁 1926
挂钩 1925
超轻 1925
蒜 1925
高领 1925
印刷 1925
温泉 1924
肩带 1924
82 1924
壁@@ 1923
unique 1923
店@@ 1923
男式 1922
二代 1922
tex@@ 1922
81 1922
仙女 1922
и 1922
插头 1921
az@@ 1921
连 1920
健 1920
92 1920
94 1920
window 1919
磁@@ 1919
常 1919
扭蛋 1919
cel@@ 1918
书籍 1918
递送 1918
退@@ 1917
尘 1917
连@@ 1917
润@@ 1917
但是 1917
卫生间 1916
motor 1916
rs 1916
索 1916
р@@ 1916
配饰 1914
营销 1914
ils 1913
一组 1913
拉杆 1911
头皮 1911
instant 1910
ware 1910
即食 1910
jin@@ 1909
单机 1908
单位 1908
爬 1907
added 1906
kingdom 1906
cut 1905
half 1905
透@@ 1905
吸盘 1905
chat 1905
mission 1905
地板 1905
税 1905
yer 1904
engine 1904
science 1904
钳 1904
埃@@ 1903
亲子 1902
83 1902
太阳能 1902
时代 1902
许多 1902
els 1901
flowers 1900
莎 1900
category 1900
fier 1899
milk 1899
脱@@ 1898
钛钢 1898
睡眠 1897
steam 1897
re-@@ 1896
黑白 1896
涂@@ 1896
使@@ 1896
扩@@ 1895
78 1895
记@@ 1895
become 1895
fishing 1894
失@@ 1894
意见 1894
九@@ 1893
现场 1893
operated 1893
linux 1893
平口 1892
birthday 1892
维他命 1892
财@@ 1892
逗 1892
important 1892
analysis 1891
shipment 1890
拆卸 1890
规格 1890
wine 1890
面交 1890
澳大 1890
监控 1889
master 1889
指南 1888
缝@@ 1887
techniques 1886
ica 1884
comm@@ 1884
brown 1883
织@@ 1883
ate@@ 1883
加强 1883
essential 1882
設 1882
参数 1881
tun@@ 1880
much 1880
tank 1879
spec@@ 1879
走 1879
机能 1879
train 1879
distance 1878
翻领 1877
telephone 1877
cam 1876
poly@@ 1876
gran@@ 1876
ish 1876
young 1875
接线 1875
rely 1875
时候 1875
ption 1874
一字 1874
顺@@ 1873
电机 1872
pump 1872
vintage 1872
analytical 1872
镇 1871
wedding 1870
潜水 1870
压力 1870
93 1870
坐垫 1869
骨@@ 1869
青 1869
控油 1869
手拿 1868
certificate 1868
培 1868
泰 1868
string 1867
晚@@ 1867
tab 1867
狗@@ 1867
关闭 1867
芝麻 1866
carbon 1865
pol@@ 1865
zone 1865
villas 1865
sound 1864
订@@ 1864
密封 1863
编号 1863
ian 1862
把手 1862
far@@ 1862
参加 1862
glo@@ 1861
教学 1861
流苏 1861
jewelry 1860
三色 1860
assi@@ 1859
.. 1859
察 1859
然 1859
mc@@ 1858
vs 1858
任选 1858
广场 1858
heat 1857
柄 1857
义大利 1856
lcd 1854
淡 1854
direc@@ 1854
couple 1853
24-hour 1853
ress 1852
魔法 1852
si 1851
毛线 1850
golden 1850
武@@ 1850
装备 1850
being 1850
ick@@ 1849
成长 1849
gam@@ 1849
by@@ 1849
博物馆 1849
dance 1848
迷@@ 1848
vip 1848
sign 1847
tablet 1846
若 1846
眉 1846
particip@@ 1846
se2 1845
bin@@ 1844
channel 1844
七@@ 1843
嘉@@ 1843
给@@ 1843
join 1843
2006 1843
mul@@ 1842
buckle 1842
currency 1842
研发 1842
范 1841
防爆 1841
red@@ 1841
冬@@ 1841
李@@ 1841
maximum 1841
✔ 1840
颈@@ 1840
testing 1840
又 1839
羊 1839
成立 1839
挂饰 1838
doll 1838
sweet 1837
necklace 1836
ada 1836
围兜 1835
pixels 1835
promo@@ 1835
制服 1834
ker@@ 1833
早@@ 1833
帝 1833
支撑 1832
公路 1832
run 1832
ita 1832
锋 1831
贴片 1831
碳纤维 1831
绑 1830
卢@@ 1830
糕 1830
od@@ 1829
摇 1829
30-@@ 1829
雷 1828
向@@ 1828
express 1828
word 1828
photos 1828
出现 1828
tag 1827
qi@@ 1827
thickened 1827
洁牙 1827
日常 1827
fran@@ 1826
计算机 1826
week 1825
three-@@ 1825
mation 1825
spray 1824
休@@ 1823
样@@ 1822
暂 1822
醇 1820
inst@@ 1820
望 1820
姓名 1819
龄 1819
deposit 1819
germany 1818
ale 1818
ese 1817
头饰 1817
净化 1817
房@@ 1817
须知 1817
toilet 1816
移@@ 1815
8.@@ 1815
ack 1815
钓 1815
bir@@ 1814
人士 1814
漏 1813
000@@ 1813
口水 1812
打印 1811
sup@@ 1810
首选 1809
v-@@ 1808
ped 1808
喵 1808
fra@@ 1807
睡 1807
能源 1807
plant 1806
越南 1806
间@@ 1806
参@@ 1806
shu@@ 1805
张@@ 1805
tax 1805
ser 1804
self-@@ 1804
71 1804
故事 1803
points 1803
洗脸 1803
浴缸 1803
板@@ 1802
黄色 1801
gal@@ 1801
掌 1801
练习 1801
糖@@ 1801
竞@@ 1800
em 1800
窥 1800
薰 1799
更换 1799
✿ 1799
年度 1799
76 1799
初 1798
sn@@ 1798
陈@@ 1797
land@@ 1797
腹 1797
慵懒 1797
agreeing 1797
hil@@ 1796
女包 1795
格式 1794
boy 1794
fas@@ 1794
鲨鱼 1792
射@@ 1792
松紧 1792
ining 1792
80g 1792
xing 1791
gb@@ 1791
检@@ 1791
立即 1791
泳装 1790
英雄 1790
members 1790
克斯 1789
短袜 1787
ya@@ 1787
europe 1787
装置 1786
刮胡刀 1786
once 1786
伊 1785
i11 1785
月份 1785
笔@@ 1784
⚠ 1784
bow 1783
vehicle 1783
ear 1782
flow 1782
ek 1782
宅配 1781
化妆品 1781
royal 1780
受@@ 1780
900 1780
墨镜 1780
award 1780
金融 1780
1080p 1779
pap@@ 1779
sh 1778
thou@@ 1778
牛肉 1778
儿@@ 1777
a5@@ 1777
black@@ 1776
關 1776
揹 1775
研 1775
先生 1775
п@@ 1775
精致 1774
汉 1774
池 1774
交 1774
ching 1773
伦 1773
桃 1773
钛 1772
幼 1772
ja 1772
alloy 1771
说明 1771
high@@ 1770
grade 1770
樱花 1770
mun@@ 1769
掉 1769
ams 1768
不能 1768
rack 1767
quest 1767
third 1766
found 1766
恶@@ 1765
豆腐 1764
高端 1763
熟@@ 1763
是@@ 1763
magic 1762
袋装 1762
're 1762
rent 1761
97 1761
fun 1761
支援 1761
轻奢 1760
bab@@ 1760
播 1760
菜@@ 1760
手帐 1760
网路 1759
淡@@ 1759
芭@@ 1759
独特 1758
improve 1758
期@@ 1758
sty@@ 1757
妈 1757
史@@ 1757
lighting 1757
股 1757
最低价 1757
坐 1757
ي@@ 1757
ama 1756
main@@ 1756
朗 1756
learning 1755
connect 1755
purpose 1754
珍 1754
pass 1754
狮 1754
臂 1753
conference 1753
intelligent 1753
ages 1753
staff 1753
shall 1753
卫生 1752
职@@ 1752
basic 1750
摇杆 1749
赛车 1748
皇家 1748
姜 1748
sig@@ 1748
fruit 1747
壁挂 1747
杰@@ 1747
汉@@ 1747
those 1747
innovation 1746
whe@@ 1745
dining 1745
hz 1745
feature 1745
骑士 1744
ators 1744
看@@ 1743
地垫 1743
build 1743
includes 1743
限制 1743
described 1743
室外 1742
青少年 1742
vie@@ 1742
坚果 1742
睡@@ 1742
衣@@ 1741
贵 1741
就@@ 1741
责任 1741
chair 1740
pot 1739
shan 1739
感谢 1738
meter 1737
导航 1736
洗面 1736
蜂蜜 1736
designed 1736
很多 1736
汽@@ 1735
必@@ 1735
another 1735
发生 1735
gmail 1735
萌 1734
tai@@ 1733
cast 1733
certification 1733
东大门 1732
智@@ 1732
250ml 1731
采 1731
精灵 1731
翻@@ 1730
180@@ 1730
记忆 1729
加密 1729
develo@@ 1729
筋 1727
烤@@ 1727
bag@@ 1727
desktop 1727
excellent 1727
泼水 1727
sis 1727
民族 1726
common 1726
便当 1725
镜片 1724
兜 1724
不要 1724
供应商 1724
bb 1723
dar@@ 1723
情@@ 1723
脏 1723
束@@ 1722
终@@ 1722
‍ 1722
extent 1722
部@@ 1721
hr 1721
pattern 1719
password 1719
massage 1719
veri@@ 1719
游戏机 1718
木质 1718
面板 1718
庆 1718
yes 1718
妮 1716
这种 1716
2005 1715
传输线 1714
e-mail 1714
700 1713
符合 1713
爽 1713
频道 1712
森林 1712
预付卡 1712
oz 1711
traditional 1711
un 1711
分离 1710
jeans 1710
传感器 1710
踢 1710
commercial 1709
小白 1708
impro@@ 1708
喜 1708
鲁 1708
求 1708
cutting 1707
monthly 1707
辣椒 1706
布置 1706
chemical 1706
atu@@ 1705
高温 1705
才 1705
水平 1705
pun@@ 1704
valve 1704
looking 1704
希@@ 1704
死@@ 1704
period 1704
communication 1703
朵 1703
负 1703
互联网 1703
connec@@ 1702
特卖 1702
靴子 1702
步骤 1702
interface 1701
动力 1701
户 1701
期间 1701
lace 1700
佛 1700
体系 1700
表示 1700
tit@@ 1699
嫩 1699
countries 1698
高帮 1697
73 1697
cul@@ 1696
曲@@ 1696
ny@@ 1696
指纹 1695
软底 1695
到@@ 1695
七分 1694
婴幼儿 1694
聊聊 1694
害 1694
排汗 1693
浓@@ 1693
奶粉 1693
阻@@ 1692
机油 1692
表演 1692
ama@@ 1692
eco@@ 1691
世 1691
43@@ 1691
减 1691
运输 1691
teri@@ 1690
颈 1690
跑 1690
kan@@ 1690
墨 1690
mesh 1689
pen 1689
海鲜 1689
乔@@ 1689
panel 1688
唇@@ 1688
居@@ 1688
治疗 1688
subscri@@ 1688
2017-0@@ 1688
resi@@ 1687
graph@@ 1687
紧致 1687
营@@ 1687
reli@@ 1686
巴西 1686
办@@ 1686
a71 1685
amount 1685
面积 1685
cy 1684
丁@@ 1684
province 1684
sky 1683
隆 1683
spain 1683
installation 1682
satellite 1682
community 1682
缝 1681
output 1681
washing 1681
sd@@ 1681
statement 1681
铜@@ 1680
江 1680
返回 1680
包装@@ 1679
seat 1679
2023 1679
nt 1679
韩式 1678
醒 1678
vari@@ 1678
定位 1678
breakfasts 1678
唐@@ 1677
edge 1677
饵 1677
破@@ 1677
亿 1677
fi 1676
things 1676
权利 1676
dom 1675
11pro 1674
斜@@ 1674
确认 1674
gl@@ 1673
悠游卡 1673
蔬菜 1673
胜@@ 1672
adjustable 1672
讲@@ 1672
to-@@ 1671
营 1671
延@@ 1671
小包 1671
每月 1671
重量 1670
redmi 1670
隔热 1670
sing@@ 1670
cases 1670
竹@@ 1670
describes 1670
抽屉 1669
健@@ 1669
had 1669
fli@@ 1668
最近 1668
午@@ 1667
男童 1665
理发 1665
laser 1665
实体 1665
net@@ 1664
风险 1664
投 1664
fol@@ 1663
风衣 1663
权@@ 1663
microsoft 1663
din@@ 1662
pper 1662
vit@@ 1662
♀ 1661
cards 1660
服饰 1660
zu@@ 1660
径 1660
log 1660
install 1660
廊 1660
额外 1660
situated 1660
pocket 1659
ano 1659
树@@ 1659
profile 1659
row 1658
罗马 1658
qui@@ 1658
想要 1658
sofa 1657
sunday 1657
near 1657
炸@@ 1656
auto 1656
迷彩 1656
娱乐 1656
列@@ 1656
visa 1656
3000 1655
出口 1655
zi@@ 1655
官 1654
良好 1654
whi@@ 1653
副@@ 1653
神奇 1653
disc@@ 1652
距 1652
annual 1652
消息 1652
towel 1651
mountain 1651
chang@@ 1651
亚克力 1651
multiple 1649
god 1649
留 1649
partner 1649
网纱 1648
fee 1648
灰@@ 1648
posted 1648
墨@@ 1646
ced 1646
angle 1645
emails 1645
银色 1644
foreign 1644
ands 1644
rope 1643
motorcycle 1643
信用卡 1643
remo@@ 1642
leisure 1642
维护 1642
边@@ 1641
盛@@ 1641
附@@ 1641
wholesale 1640
多款 1640
待 1640
medium 1639
厘米 1639
zo@@ 1639
sor@@ 1639
vege@@ 1638
cks 1638
高蛋白 1638
announ@@ 1638
ا@@ 1638
vis@@ 1637
folding 1637
ot 1637
弹簧 1637
con 1637
仙 1637
拉拉 1637
灭 1637
sand@@ 1636
取消 1636
chan@@ 1635
desig@@ 1635
index 1635
下面 1635
签 1634
随时 1634
资@@ 1634
individual 1633
测量 1633
招@@ 1633
可可 1633
mail 1632
肚 1632
1kg 1631
ther 1631
农 1630
py@@ 1630
状态 1630
当地 1630
宴 1629
灭@@ 1629
超人 1629
羊@@ 1629
9.@@ 1628
five 1628
leading 1628
partners 1628
standing 1627
aqu@@ 1627
滤芯 1627
中性 1625
锆石 1624
传输 1624
每日 1624
m3 1624
袖套 1623
目录 1623
cab@@ 1622
replacement 1622
loc@@ 1622
地毯 1622
kes 1621
oculus 1621
电压 1621
ink 1620
瑞士 1619
丰富 1619
垃圾 1619
adults 1618
耐用 1618
羽@@ 1618
height 1618
观 1618
览 1618
ho 1617
衣草 1617
厕所 1617
稳定 1617
界 1617
核 1616
美味 1616
life@@ 1615
蔓 1615
74 1614
头套 1614
头戴 1614
mou@@ 1613
焦 1612
3c 1612
gear 1612
写@@ 1611
奢华 1611
移 1611
included 1610
杀菌 1610
monday 1609
流程 1609
独@@ 1608
dual 1608
扣@@ 1608
opening 1608
参考 1608
性@@ 1608
wheel 1607
联想 1607
海苔 1607
friday 1607
光碟 1606
cos 1606
气候 1606
lated 1605
gel 1604
显示器 1604
旅 1604
数位 1604
respon@@ 1603
fall 1602
清洁剂 1602
ways 1602
滋润 1602
videos 1601
monitor 1601
7.@@ 1601
配备 1601
15-@@ 1601
pillow 1600
tle 1600
洋@@ 1600
sr 1600
wash 1599
功率 1599
双色 1598
踏板 1598
picture 1597
其@@ 1597
feel 1596
tis 1596
12pro 1596
宾 1596
channels 1596
容 1595
sion@@ 1594
spi@@ 1594
奶嘴 1594
卷@@ 1594
更@@ 1594
squ@@ 1593
礼券 1593
ling@@ 1593
试 1593
wu@@ 1592
花生 1592
错误 1592
随 1592
101 1592
之后 1592
adapter 1591
碎花 1591
inf@@ 1591
sy 1591
cash 1591
cake 1590
ut 1590
200g 1590
sin@@ 1590
条@@ 1590
still 1590
ink@@ 1589
true 1589
follow 1589
桌上 1589
bridge 1589
机器 1589
■ 1589
歌@@ 1588
going 1587
nam@@ 1586
牛津 1586
散@@ 1586
哩 1586
美妆 1585
牙膏 1585
x2 1584
ura 1584
additional 1584
held 1583
lec@@ 1583
vin@@ 1583
reach 1583
翻译 1583
桃@@ 1582
vi 1581
999 1581
ership 1581
形@@ 1580
玻璃@@ 1580
microphone 1579
周年 1579
破 1579
ens 1578
夜光 1578
市中心 1578
sen 1577
防臭 1576
丹@@ 1576
中央 1576
佩@@ 1575
scre@@ 1575
compatible 1575
菲 1575
滤@@ 1575
selection 1575
成员 1575
先@@ 1574
土耳其 1574
那@@ 1574
ili@@ 1573
精选 1573
结婚 1572
丰 1571
夏日 1571
机会 1571
variety 1571
磨牙 1571
analy@@ 1571
概@@ 1571
比基尼 1570
ky@@ 1570
❣ 1570
44@@ 1569
图像 1569
wind 1568
200ml 1568
trend 1567
橡@@ 1567
hp 1567
重新 1567
测 1566
broad@@ 1566
内部 1566
题 1566
phones 1565
connection 1565
zen@@ 1565
好吃 1565
几@@ 1565
е 1565
婴 1564
优惠券 1564
由于 1564
bf 1563
除湿 1563
互动 1563
瘦@@ 1563
bottom 1562
costco 1562
amp 1561
dig@@ 1561
run@@ 1561
exce@@ 1561
lets 1560
asi@@ 1560
集成 1560
医 1560
tree 1558
return 1558
离子 1557
resources 1557
租赁 1557
casino 1557
動 1556
sr@@ 1555
ipad@@ 1555
臭 1555
临 1555
part@@ 1554
middle 1554
平安 1554
开放 1554
点数 1554
ab 1553
三件 1553
aa 1553
减少 1553
夜灯 1552
ay 1552
湾 1552
cold 1550
los 1550
去@@ 1550
a51 1550
生命 1550
manag@@ 1550
态 1549
饭店 1549
详情 1549
凤梨 1548
冻 1548
gue 1548
ps5 1548
改 1548
integrated 1548
软糖 1548
registered 1548
woo@@ 1547
专 1547
据 1547
庆@@ 1547
elastic 1546
western 1546
棒球帽 1546
次数 1546
友@@ 1546
液态 1546
lights 1545
艺 1545
东京 1545
specific 1545
為 1545
whole 1544
森@@ 1544
job 1544
custom 1543
exclusive 1543
short-sleeved 1543
锂 1543
拼@@ 1543
concer@@ 1543
硬碟 1543
鸟@@ 1543
130 1542
ners 1542
纱布 1542
growth 1542
摆 1541
词 1541
department 1540
米家 1540
命 1540
湖@@ 1540
bil@@ 1539
邦 1539
翻盖 1539
roll 1538
together 1538
vacuum 1538
coming 1538
昆@@ 1538
活性 1538
盾 1538
手指 1537
ath@@ 1537
事件 1537
printed 1536
元素 1536
珊瑚 1536
妙 1536
self 1536
吸汗 1535
迷 1535
poco 1535
须 1534
跳 1534
产业 1533
奖励 1533
域名 1533
jk 1532
ef@@ 1532
paris 1532
gps 1532
简易 1532
寄出 1532
都是 1532
优化 1532
cushion 1531
单人 1531
-1 1531
保留 1531
client 1530
花卉 1529
系带 1529
大量 1529
era 1529
html 1529
交付 1528
won 1528
operating 1528
滴@@ 1527
yc@@ 1527
一条 1527
计算 1527
问 1527
op 1526
register 1526
过敏 1525
tin@@ 1525
quar@@ 1525
ess@@ 1524
abs 1523
多层 1523
收到 1523
al-@@ 1523
典@@ 1522
钢琴 1522
年前 1522
耳饰 1521
务@@ 1521
hanging 1520
iden@@ 1520
chin@@ 1520
liquid 1520
sq@@ 1520
高压 1519
lic 1519
器材 1519
水器 1519
burg 1519
1000ml 1519
刺 1518
rain 1518
on-@@ 1517
ged 1517
wed 1517
宫@@ 1517
矿 1517
纪念@@ 1516
夏装 1516
painting 1516
pearl 1515
协助 1515
wear@@ 1514
environmental 1514
传 1514
s.@@ 1514
减震 1513
aro@@ 1513
围脖 1513
travel@@ 1513
引擎 1513
耳朵 1512
flash 1512
气球 1512
cross 1512
human 1511
包头 1511
标志 1511
熊@@ 1511
deci@@ 1511
防盗 1510
横@@ 1510
ely 1510
ask 1510
直销 1510
± 1510
策略 1509
掀 1509
menu 1509
said 1509
袍 1508
sex 1508
哺乳 1508
器@@ 1508
mk@@ 1507
杏仁 1507
accurate 1507
fixed 1506
ative 1506
文具 1506
洞洞 1506
ich 1506
香风 1505
旗 1505
作品 1505
其它 1505
ken 1504
远传 1504
百货 1503
pre-@@ 1503
台中 1503
hall 1503
del@@ 1502
huawei 1502
文艺 1502
cru@@ 1502
刮@@ 1502
beds 1502
pur@@ 1502
projects 1502
隐藏 1501
reduc@@ 1501
until 1501
could 1501
arti@@ 1500
load 1500
cour@@ 1500
妇 1500
tokyo 1500
护眼 1498
巴黎 1498
政府 1498
求@@ 1497
ara 1497
appe@@ 1497
余 1497
ladies 1496
巨@@ 1496
妞 1496
sol@@ 1496
轻薄 1496
ide@@ 1496
告 1495
india 1495
马克 1494
leg 1493
钩 1493
lake 1492
健身房 1492
friendly 1491
统一 1491
pack@@ 1490
包邮 1490
ening 1490
听@@ 1490
gmail.com 1490
垂 1489
拆@@ 1489
choice 1489
served 1489
你们 1488
з@@ 1488
去除 1487
pipe 1487
内胆 1487
哈 1487
幕 1487
劳@@ 1487
寄@@ 1487
协会 1487
尤@@ 1486
维尼 1486
voltage 1486
chec@@ 1486
xsmax 1486
停车场 1486
cnc 1486
改善 1486
假日 1485
few 1485
controller 1484
蒙 1484
a42 1484
长袜 1484
潮@@ 1483
不断 1483
capital 1483
类别 1483
型@@ 1482
绕 1482
氧化 1482
乳霜 1481
nov@@ 1481
木制 1480
story 1479
女神 1479
a7@@ 1479
s20 1479
断@@ 1479
盲 1479
阳光 1479
沃@@ 1479
candy 1478
ey@@ 1478
浓 1478
较 1478
培@@ 1477
降 1477
ei@@ 1476
创造 1476
gi 1476
栏 1476
钢圈 1476
sent 1475
correc@@ 1474
珍@@ 1474
dark 1473
stage 1473
快乐 1473
lg 1473
insurance 1473
答 1473
惠@@ 1472
thailand 1472
attractions 1472
fill 1471
存@@ 1471
星星 1471
o-@@ 1471
霸 1471
mother 1470
blo@@ 1470
charger 1469
acy 1469
滚@@ 1469
树脂 1468
cooling 1468
贩 1468
关键 1467
抹茶 1466
居 1466
改变 1466
提交 1466
bike 1465
scho@@ 1465
绒@@ 1465
temp@@ 1465
я 1465
粘 1464
ering 1464
水凝 1464
leg@@ 1464
川 1464
地点 1464
note10 1463
渔夫 1463
贸易 1463
自动化 1463
棕色 1462
外送 1461
鼻 1460
ford 1460
logy 1460
left 1460
dong@@ 1459
污@@ 1459
推出 1459
十一 1459
上午 1459
15ml 1458
top@@ 1458
5cm 1457
披@@ 1457
码@@ 1456
剃须刀 1456
拉斯 1456
抛光 1455
只是 1455
mm@@ 1454
斑 1454
鼠标 1454
莱 1454
无糖 1453
小卡 1453
冷气 1453
瓶@@ 1453
london 1453
means 1452
首饰 1451
dv@@ 1451
痕 1451
钻@@ 1450
魔术 1450
vic@@ 1450
降速 1450
开叉 1450
眠 1450
更好 1450
桑 1449
she@@ 1449
旅行包 1449
比熊 1449
省@@ 1449
director 1449
经理 1449
热敷 1448
nc 1448
尖 1448
假@@ 1448
触控 1448
activ@@ 1448
gan 1448
у@@ 1448
真正 1447
养生 1447
bicycle 1446
一盒 1446
person@@ 1446
village 1446
端子 1445
exten@@ 1445
水钻 1444
脚踏 1444
dol@@ 1443
碎@@ 1443
仕 1443
协@@ 1443
行为 1443
人物 1442
蛇 1442
非@@ 1442
mouse 1442
正货 1442
christmas 1441
shar@@ 1441
驱动 1441
陆 1441
努比 1441
菜单 1441
rea@@ 1440
plain 1440
功@@ 1440
did 1440
芒果 1440
a52 1440
实用 1439
110v 1439
plat@@ 1439
五金 1439
浪漫 1439
300g 1439
司@@ 1439
ld 1438
只要 1438
kit@@ 1438
几何 1438
示@@ 1438
2004 1438
幸福 1438
自慰 1437
known 1437
len 1436
浓缩 1436
命@@ 1436
＆ 1436
✈ 1436
record 1436
仓库 1435
issue 1435
han 1435
ico 1435
全套 1435
伸 1434
套餐 1434
cham@@ 1433
紫色 1433
h-@@ 1433
stan@@ 1433
查 1433
thi@@ 1432
阴@@ 1432
晚 1432
卫 1432
tag@@ 1432
维生素 1432
collar 1431
护膝 1431
遮瑕 1431
鹿@@ 1431
發 1431
contro@@ 1430
words 1430
offering 1430
a31 1429
guangzhou 1429
rated 1429
入耳 1428
thank 1428
一件 1428
肠 1428
twin 1428
philips 1428
凝露 1428
contacts 1428
弓 1427
shing 1427
粗跟 1427
deep 1427
sand 1427
34@@ 1427
保障 1427
制品 1427
supplies 1426
围栏 1426
验证 1426
说@@ 1426
共享 1426
社区 1426
广州 1426
cleaner 1425
xin@@ 1425
ances 1425
柯@@ 1425
活力 1425
comple@@ 1424
82@@ 1424
ph 1423
effect 1423
全面 1423
茶树 1423
议@@ 1422
抽绳 1421
snacks 1421
博士 1421
study 1421
想@@ 1421
tote 1420
youth 1420
dec@@ 1420
n-@@ 1420
饮@@ 1420
eu@@ 1420
小号 1419
款式 1419
皮卡丘 1419
spot 1419
reno 1419
lish 1418
本田 1418
cle@@ 1418
变化 1418
处@@ 1418
io@@ 1417
颜@@ 1417
sense 1417
solar 1417
本地 1417
cit@@ 1417
资生堂 1417
newsletters 1417
打谱 1417
tex 1416
灯泡 1416
coup@@ 1416
м@@ 1416
盈 1415
香皂 1415
磁铁 1415
tual 1415
平面 1415
彩绘 1414
say 1414
被@@ 1414
多个 1414
5kg 1414
ptcg 1414
考@@ 1414
nar@@ 1413
不规则 1413
体育 1413
交叉 1412
pop 1412
双肩 1412
资产 1412
航 1411
dedicated 1411
联合 1411
pic 1410
挑战 1410
芙 1410
posi@@ 1410
chi 1410
还有 1410
文字 1409
青春 1409
信号 1409
inner 1408
遮阳帽 1408
盘@@ 1408
饭@@ 1408
mar 1408
安全带 1408
降噪 1407
扶手 1407
识别 1407
完 1407
希 1407
ay@@ 1407
一切 1407
allows 1407
串珠 1406
毡 1406
关节 1406
正确 1406
created 1405
唱@@ 1405
168 1404
阶 1403
义@@ 1403
prices 1402
arm 1402
角@@ 1402
蒜@@ 1401
residence 1401
家居服 1400
duc@@ 1400
cb@@ 1400
nature 1400
30g 1400
makeup 1399
mirror 1399
旅行箱 1399
血 1399
² 1399
fro@@ 1398
balcony 1398
ground 1397
账 1397
绝@@ 1397
唇 1397
许可 1397
saturday 1397
zes 1396
积@@ 1396
canon 1395
鼻@@ 1395
乘@@ 1395
sia 1394
帐篷 1394
unlimited 1394
深层 1394
分期 1394
峰 1394
转换器 1393
gy@@ 1393
aged 1393
缓@@ 1393
追 1393
组装 1393
通常 1392
当日 1391
私 1391
诱惑 1391
palace 1390
sheet 1390
input 1390
sets 1390
optional 1390
organi@@ 1390
床垫 1390
put 1390
异 1390
放松 1390
heel 1389
vel@@ 1389
一对 1389
fri@@ 1389
絡 1389
vel 1388
paste 1388
适 1388
污 1388
selling 1388
module 1388
major 1388
4-0@@ 1388
强化 1387
通道 1387
tags 1387
◎ 1387
promotion 1386
头盔 1386
sky@@ 1386
住@@ 1386
电子报 1386
outlook 1386
pag@@ 1385
manual 1385
自制 1385
墨西哥 1385
cer 1384
到货 1384
告@@ 1384
左@@ 1384
9h 1383
考 1383
val 1382
gallery 1382
bmw 1381
ст@@ 1381
sk 1380
malaysia 1379
坚@@ 1379
ester 1379
festival 1379
手串 1379
梯 1379
tou@@ 1378
澳 1378
将@@ 1378
盒子 1377
宜 1377
充@@ 1377
正常 1377
automatically 1377
保险箱 1377
文档 1377
隔离 1376
叫 1376
description 1376
磁性 1375
jin 1375
bonus 1375
黏 1375
座@@ 1375
豪 1375
能@@ 1375
volume 1374
洁面 1374
芳香 1374
厚@@ 1374
落@@ 1374
conver@@ 1374
侧@@ 1374
京 1374
sec@@ 1373
提袋 1373
sell 1373
一代 1373
childrens 1372
伴@@ 1372
atch@@ 1372
旅@@ 1372
lap@@ 1371
happ@@ 1371
浆 1370
效率 1370
sil@@ 1369
track 1369
肥 1369
fu 1369
版@@ 1369
las@@ 1368
俱乐部 1368
association 1368
youtube 1368
10.@@ 1367
explo@@ 1367
copy 1367
建设 1367
british 1366
chu@@ 1366
2003 1366
扎@@ 1366
陀螺 1366
him 1366
秤 1366
sted 1365
设计师 1365
那么 1365
光盘 1364
审@@ 1364
损 1363
imp@@ 1363
医生 1363
600g 1363
星巴克 1362
av 1362
gate 1362
纸尿裤 1362
莉@@ 1362
customized 1360
s21 1360
降低 1360
others 1360
别@@ 1359
bra 1359
鱿鱼 1359
毫升 1359
lac@@ 1359
风景 1359
9t 1359
压缩 1358
趣 1358
※ 1358
risk 1358
插卡 1357
增强 1357
cp@@ 1357
think 1357
寻找 1357
dust 1356
pp@@ 1356
释 1356
ron 1355
shape 1355
oled 1355
婚@@ 1354
shi 1354
sm 1354
anda 1354
bt@@ 1354
fabric 1353
ound 1353
加湿器 1353
dc@@ 1353
所@@ 1353
政 1353
guard 1352
zen 1352
战略 1352
售后 1352
electro@@ 1351
哥@@ 1351
相容 1351
供@@ 1350
肌肉 1350
擦@@ 1350
表面 1350
父@@ 1350
秘@@ 1350
兹 1348
少@@ 1348
几 1348
马卡龙 1347
剃@@ 1347
避@@ 1347
pages 1347
轴承 1347
gin@@ 1346
墙@@ 1346
毛孔 1346
肌肤 1346
杂志 1346
侠 1345
满意 1345
ة 1345
acid 1344
est@@ 1344
42@@ 1344
清爽 1342
婚 1342
战斗 1342
orders 1342
160 1341
民宿 1341
arts 1340
hole 1340
hair@@ 1340
motel 1340
rod 1339
dle 1339
2000@@ 1339
yang 1339
正式 1339
areas 1339
م@@ 1339
滚珠 1338
early 1338
stry 1338
ship@@ 1338
冬 1338
震 1338
晒 1338
int 1338
dre@@ 1338
调味 1338
kr@@ 1337
方向 1337
а 1337
尖头 1336
喂食 1336
模拟 1336
播放 1336
台北 1336
角质 1336
群@@ 1336
植@@ 1336
б@@ 1336
tops 1335
900@@ 1334
day@@ 1334
250@@ 1333
秘 1333
邮箱 1333
mir@@ 1332
种@@ 1332
眼睛 1332
潜@@ 1332
due 1332
复 1332
廷 1332
aci@@ 1332
format 1332
奖@@ 1332
浴@@ 1331
dream 1331
棒球 1331
长度 1330
属 1330
㊣ 1330
藏@@ 1329
wei@@ 1329
下标 1329
存在 1329
卡套 1328
regular 1328
裂 1328
du 1328
顺 1328
鹰 1327
protect 1327
hairdryer 1327
评@@ 1327
ple 1326
白金 1326
翻 1326
烧烤 1326
quo@@ 1326
剑 1326
脱 1325
叉 1325
戴 1325
sensor 1324
练 1324
带有 1324
薯 1324
此@@ 1324
索尼 1323
素材 1323
籽 1323
兴趣 1323
战术 1322
ets 1322
难 1322
monitoring 1321
黑莓 1321
往 1321
按摩棒 1321
奶瓶 1321
apk 1321
发动机 1320
wer 1320
honda 1320
地瓜 1320
休息 1320
依@@ 1320
坠 1319
compres@@ 1319
粉刺 1319
产生 1319
wax 1318
models 1318
status 1318
整个 1318
煮 1317
mount 1316
手电筒 1316
italian 1316
脆@@ 1316
ville 1316
难@@ 1316
region 1316
客@@ 1315
que@@ 1315
年龄 1315
cement 1314
针对 1314
straight 1313
patch 1313
soap 1313
结束 1313
餐桌 1312
工作室 1312
ft@@ 1312
何@@ 1312
海报 1311
拉面 1311
入门 1311
links 1311
瘦 1311
76@@ 1311
lazy 1310
nel 1310
上传 1310
艾 1309
ere 1309
未@@ 1309
authori@@ 1308
toyota 1308
慕斯 1308
恒@@ 1308
润滑 1308
emb@@ 1307
yi 1307
there@@ 1307
degree 1306
expec@@ 1306
whether 1306
tis@@ 1305
舞蹈 1305
lab 1305
差@@ 1305
简介 1305
支@@ 1304
偏@@ 1304
担@@ 1304
折叠@@ 1303
x1 1303
chicken 1303
width 1303
however 1303
rain@@ 1302
漏@@ 1302
port@@ 1302
起来 1302
currently 1302
shoe 1301
wip@@ 1301
优选 1301
克力 1301
猪肉 1301
坦@@ 1300
单车 1300
一包 1300
gloves 1299
2017-@@ 1299
玫瑰金 1298
increase 1298
驰 1298
pers 1297
river 1297
hk@@ 1296
anti-slip 1296
保护@@ 1296
葱 1296
古早 1296
原价 1296
作者 1296
5d 1295
发箍 1295
dies 1295
effective 1295
序 1295
迈@@ 1295
mine 1295
物流 1295
連 1295
件套 1294
低温 1294
无需 1294
reservation 1294
residen@@ 1294
委员会 1294
url 1294
刺@@ 1293
泉 1293
人才 1293
accordance 1293
time@@ 1292
indic@@ 1292
lux@@ 1292
纪念 1291
熟 1291
frequency 1290
夹子 1290
ines 1290
precision 1290
至@@ 1290
批@@ 1290
过去 1290
i12 1289
交流 1289
easily 1289
蜂 1288
丰田 1288
mechanical 1288
efficiency 1288
鼯 1288
anti 1287
default 1287
烯 1287
phi@@ 1287
杠 1286
earrings 1286
two-@@ 1286
繁@@ 1286
费@@ 1286
dres@@ 1285
冰淇淋 1285
knowledge 1285
ct@@ 1284
cher 1284
盛 1284
赫@@ 1284
ala 1284
容易 1284
参与 1284
rating 1284
lucky 1283
实验室 1283
france 1283
柜@@ 1283
艾草 1282
尝试 1282
leave 1282
冬天 1281
幸运 1281
天使 1281
internal 1281
reception 1281
造@@ 1280
allo@@ 1280
write 1280
move 1280
.00 1280
base@@ 1279
原因 1279
悦 1279
自助 1278
霸@@ 1278
规定 1278
pped 1277
连续 1277
震动 1277
班@@ 1277
查询 1277
pping 1276
预 1276
核@@ 1276
招聘 1276
电风扇 1275
ging 1275
息 1275
掌@@ 1275
140 1275
450 1275
multifunctional 1274
试香 1274
钢铁 1274
便利 1274
男用 1274
弗@@ 1274
item 1274
terrace 1274
留言 1274
交易@@ 1274
宝马 1273
菇 1273
复合 1273
ath 1273
术@@ 1273
星球 1273
醋 1273
奇迹 1272
remove 1272
场景 1271
热门 1271
you@@ 1271
庄 1271
葡萄酒 1271
ust 1270
网眼 1270
飘@@ 1270
ag 1270
劳 1270
巢 1270
猫狗 1269
fees 1269
立领 1268
景@@ 1268
守 1268
blog 1268
束脚 1267
希腊 1267
240 1267
公升 1267
合成 1267
超强 1267
浙江 1267
静电 1266
研究@@ 1266
予 1266
employees 1266
knitted 1265
切割 1265
肯 1265
退款 1265
语音 1264
sar@@ 1264
裸 1264
内置 1263
财 1263
forms 1263
stand@@ 1262
破洞 1262
挡@@ 1262
humidity 1262
tai 1262
液体 1261
tower 1261
路卡 1260
过膝 1260
达到 1260
负责 1260
浅@@ 1259
广泛 1259
les@@ 1258
挑@@ 1258
江苏 1258
shel@@ 1257
foundation 1257
折@@ 1257
ato@@ 1257
校@@ 1257
玉米 1257
展览 1257
织 1256
paid 1256
carri@@ 1256
而@@ 1256
-resistant 1255
签@@ 1255
lia 1254
还@@ 1254
专区 1254
regi@@ 1254
小狗 1253
毫@@ 1253
静@@ 1253
pd@@ 1253
卸 1253
拍摄 1253
ner@@ 1253
queen 1253
scale 1253
friend 1253
幼@@ 1253
夫@@ 1253
锅@@ 1253
ky 1252
抱 1252
court 1252
bl 1252
翼 1252
零售 1252
脸部 1252
吨 1252
recommended 1251
bird 1251
jun@@ 1251
vil@@ 1251
clients 1251
gic 1250
instrument 1250
mix 1250
ement 1249
14k 1249
缩@@ 1249
meat 1249
卸妆 1249
tile 1249
肚@@ 1249
hardware 1249
编辑 1249
大陆 1249
vered 1248
部件 1248
lou@@ 1248
va@@ 1248
selected 1247
geo@@ 1247
mid-@@ 1247
su 1247
syn@@ 1247
度@@ 1247
success 1247
與 1247
necessary 1246
帆布鞋 1246
lau@@ 1246
领巾 1246
jr 1246
小说 1246
entry 1246
categories 1246
shock 1245
5s 1245
ges 1245
认为 1245
toe 1244
按键 1244
db 1244
一样 1244
善 1244
refund 1244
architecture 1244
chest 1243
gaming 1243
微型 1243
旗@@ 1243
cou@@ 1243
ones 1242
融@@ 1242
import 1241
gation 1241
贵@@ 1241
speaker 1241
bts 1241
❀ 1241
论 1241
绣 1240
extension 1240
肩@@ 1240
等级 1240
cosplay 1240
急@@ 1240
tie 1239
查@@ 1239
built 1239
带来 1239
基金 1239
超细 1238
赠品 1238
makes 1238
fel@@ 1238
斗@@ 1238
黑糖 1238
苏 1237
cm@@ 1237
sunscreen 1237
xx@@ 1237
ade@@ 1237
决定 1237
s2 1236
水管 1236
steps 1236
lin 1236
拼装 1236
黑胶 1236
染@@ 1236
plaza 1236
发带 1235
胡椒 1235
offic@@ 1235
篇 1235
繁体 1235
disk 1234
rich 1234
terminal 1234
订购 1234
hx@@ 1234
pass@@ 1234
brands 1234
蛋卷 1234
bathrooms 1234
bear@@ 1233
adidas 1233
bt 1233
任@@ 1233
镶钻 1232
挂脖 1232
jan@@ 1232
seas@@ 1232
＋ 1232
domestic 1232
消 1232
平方米 1232
勾 1231
兵 1231
转接 1231
qq 1231
赌场 1231
exp@@ 1230
fa 1230
kw 1230
停车 1229
xt 1229
头巾 1228
lla 1228
洗手 1228
htc 1228
panasonic 1228
yu 1228
莲 1228
作用 1228
御@@ 1228
争@@ 1228
optimi@@ 1228
锌 1227
cabinet 1227
温和 1227
benefits 1227
全国 1227
医院 1227
forest 1226
s10 1226
mr@@ 1226
published 1226
headset 1225
double-@@ 1225
豆豆 1225
锦@@ 1225
1500 1225
established 1225
葡萄 1224
serving 1224
craft 1224
joy 1224
假发 1224
汗 1224
pub@@ 1224
о 1224
ь 1224
balance 1223
morning 1223
3g 1223
cher@@ 1223
wet 1222
f3 1222
余@@ 1222
搞@@ 1222
发热 1222
¥ 1222
还是 1222
wide@@ 1221
a32 1221
大理石 1221
subject 1221
读 1221
人体 1220
粘@@ 1220
drying 1219
wn@@ 1219
wr@@ 1219
97@@ 1219
国内 1219
drink 1218
新娘 1218
落地 1218
thermal 1218
漾 1218
设定 1218
tempered 1218
笔记 1218
赞 1218
比特 1218
ultra-@@ 1217
樱桃 1217
静 1217
admini@@ 1217
损@@ 1217
挑 1216
高筒 1216
燕麦 1216
reas@@ 1216
disp@@ 1216
opened 1216
棋 1216
supports 1215
wooden 1215
绘@@ 1215
荷@@ 1215
matic 1215
asse@@ 1215
centr@@ 1215
gui@@ 1215
continue 1215
providing 1215
cs@@ 1214
库@@ 1214
网页 1214
形式 1214
alized 1213
储 1213
│ 1213
arly 1213
评 1213
cular 1213
histor@@ 1213
zhejiang 1213
wash@@ 1212
lay@@ 1212
童装 1212
刀片 1211
乐园 1211
closed 1211
乐器 1210
disney 1210
ever 1210
setting 1210
meals 1210
bracket 1209
radio 1209
如@@ 1209
拔 1209
hou@@ 1209
計 1209
目@@ 1208
cheap 1208
a72 1208
将会 1208
炭 1207
modi@@ 1207
components 1207
lling 1207
烧@@ 1207
双人床 1207
相框 1206
稳@@ 1206
lady 1206
scen@@ 1206
铅笔 1206
岩 1206
again 1206
kon@@ 1206
根@@ 1206
tel@@ 1206
markets 1206
伦敦 1206
育 1205
现金 1205
荷叶 1204
胺 1204
mas 1204
perfor@@ 1204
asian 1204
serve 1204
博客 1204
签证 1204
屑 1203
组件 1203
elegant 1203
电力 1203
connected 1203
8p 1203
人气 1203
further 1203
不含 1202
rear 1202
lot@@ 1202
面部 1202
season 1202
罐装 1202
tively 1202
裸@@ 1201
dan@@ 1201
经营 1201
填写 1201
警 1200
垃圾@@ 1200
福袋 1200
一定 1200
隔音 1199
标记 1199
柏@@ 1199
ati@@ 1199
顶@@ 1198
po 1198
哈伦 1198
external 1197
driving 1197
fat 1197
700@@ 1197
线上 1197
im 1196
奈米 1196
cent 1196
仓 1196
香草 1196
costs 1196
mouth 1195
妈咪 1195
ward 1195
洲 1195
程@@ 1195
双人间 1195
bright 1194
hop 1194
radi@@ 1194
刷头 1194
抹 1194
mr 1194
片@@ 1194
鼠@@ 1194
评估 1194
先进 1194
乳胶 1193
iii 1193
超高 1193
already 1193
胎压 1193
gn@@ 1193
after@@ 1193
contract 1193
manage 1193
jiangsu 1193
executive 1192
签名 1192
怪兽 1192
1-0@@ 1192
ads 1192
区块 1192
zero 1191
license 1191
挂勾 1191
软边 1190
原宿 1190
赠送 1190
7plus 1190
long@@ 1190
茶包 1190
fax 1190
org 1190
检验 1190
admin 1190
pets 1189
keyboard 1189
mixed 1189
mary 1189
长筒 1189
源@@ 1189
technologies 1189
-style 1188
sauce 1188
activity 1188
拨@@ 1188
一直 1188
副 1187
tch 1187
电子@@ 1187
verage 1187
太阳@@ 1187
之刃 1187
确定 1187
卸@@ 1187
高跟 1186
cell 1186
升@@ 1186
铃铛 1186
飞行 1186
reduce 1185
多肉 1185
library 1185
estate 1185
论坛 1185
planning 1185
efficient 1184
colo@@ 1184
che 1184
越@@ 1184
dia 1183
some@@ 1183
园@@ 1182
ours 1182
午餐 1182
a.@@ 1182
sequ@@ 1182
按照 1182
打蜡 1181
memory 1181
thu@@ 1181
kno@@ 1181
tivity 1181
alo@@ 1181
confir@@ 1181
soon 1181
烘@@ 1181
手册 1180
志@@ 1180
票@@ 1180
优势 1180
quali@@ 1180
convenient 1179
ren 1179
tify 1179
provi@@ 1179
recei@@ 1178
漂@@ 1178
mming 1178
equipped 1178
工作@@ 1178
vers 1177
电器 1177
肽 1177
corner 1176
collec@@ 1176
walking 1176
全身 1176
gradu@@ 1176
偷窥 1176
卷发 1176
standards 1176
flat-screen 1176
降温 1175
pil@@ 1174
针@@ 1174
取得 1174
漫画 1173
停@@ 1173
met@@ 1173
actions 1173
愿@@ 1173
訊 1173
小巧 1172
拖@@ 1172
lion 1172
幼稚园 1172
mel@@ 1172
220 1172
del 1172
government 1172
label 1171
famous 1171
detec@@ 1170
卖@@ 1170
车贴 1170
津 1170
校 1170
roses 1170
title 1170
曜日 1170
luggage 1169
letter 1169
加肥 1169
electrical 1169
含@@ 1169
proce@@ 1169
旅舍 1169
zy@@ 1168
releas@@ 1168
ligh@@ 1168
臭@@ 1168
蛙 1168
gun 1168
车辆 1168
打造 1168
依赖 1168
风机 1167
inches 1167
reading 1167
pho@@ 1167
experien@@ 1167
drop 1166
tering 1166
低腰 1166
six 1166
called 1166
持@@ 1165
初学者 1164
moon 1164
enh@@ 1164
trac@@ 1164
皇@@ 1164
clin@@ 1164
ib@@ 1164
螺 1164
腐@@ 1164
租车 1164
books 1163
旋@@ 1163
pick@@ 1163
纹身 1163
惊@@ 1163
相同 1163
ltd. 1163
martin 1162
水瓶 1162
荣 1162
命令 1162
moisturizing 1161
ble@@ 1161
乙@@ 1161
跟踪 1160
sound@@ 1160
节日 1160
碰 1160
several 1160
noodles 1159
抓@@ 1159
巴士 1159
保鲜 1159
til@@ 1158
smo@@ 1158
纱@@ 1158
alling 1158
64@@ 1158
扮演 1158
猫砂 1158
dal 1157
cop@@ 1157
ox@@ 1157
鼓 1157
可靠 1157
swit@@ 1156
粥 1156
大灯 1156
大哥大 1156
晚餐 1156
律 1156
小吃 1156
帕 1156
娘 1155
vement 1155
镀 1155
观看 1155
水龟 1155
沉@@ 1155
通信 1155
struc@@ 1154
fire@@ 1154
sc 1154
截@@ 1154
益@@ 1154
倒@@ 1154
汇 1154
begin@@ 1153
bad@@ 1153
齿 1153
ron@@ 1152
成品 1152
spor@@ 1152
31@@ 1152
沾 1152
tening 1151
german 1151
ocean 1151
拼色 1151
高达 1151
螨 1151
minimum 1151
sites 1151
president 1151
configuration 1150
yoga 1150
transfor@@ 1150
garmin 1150
high-end 1149
bean 1149
т 1149
口红 1149
wards 1149
disabled 1149
哪些 1149
负离子 1148
淡香 1148
match 1148
iwatch 1148
achi@@ 1148
发表 1148
infra@@ 1147
assembly 1147
变形 1147
animal 1147
dal@@ 1147
hr@@ 1147
参 1147
ona 1147
增长 1147
特定 1147
reserve 1147
protein 1146
获 1146
任务 1146
安排 1146
blouse 1145
1200 1145
color@@ 1145
sau@@ 1145
东西 1145
號 1145
power@@ 1144
右@@ 1144
献 1144
烈 1144
fs 1143
iling 1143
i6 1143
吹 1143
chall@@ 1143
造景 1143
兄弟 1143
oli@@ 1142
防弹 1142
现@@ 1142
termin@@ 1142
对象 1142
休 1141
节能 1141
foun@@ 1141
方巾 1141
玻尿酸 1141
坏 1141
atten@@ 1141
5000 1140
ap 1140
险 1140
规则 1140
houses 1140
平角 1139
jam@@ 1139
过年 1139
scope 1138
牵引 1138
芽 1138
least 1138
宾馆 1138
strip 1137
鼓@@ 1137
p.@@ 1137
52@@ 1137
握把 1137
transport 1137
也@@ 1137
56@@ 1136
mes@@ 1136
0g 1136
引 1136
pads 1135
8mm 1135
田@@ 1135
healthy 1135
ferred 1134
mode@@ 1134
x4 1134
苗 1134
够力 1134
cooperation 1134
绝 1133
呢 1133
accep@@ 1133
租@@ 1133
ч@@ 1133
劳保 1132
阻 1132
jet 1132
滋养 1132
economic 1132
documents 1132
习@@ 1132
实时 1131
stan 1131
积 1131
精神 1131
學 1131
ы@@ 1131
水草 1130
高雄 1130
澳门 1129
同步 1129
ush@@ 1129
republic 1129
tian@@ 1129
problem 1129
special@@ 1128
sole 1128
charg@@ 1128
肥皂 1128
蒸@@ 1128
名产 1128
属性 1128
result 1128
問 1128
answer 1127
45mm 1127
银针 1127
香菇 1127
床头 1127
pad@@ 1126
亲肤 1126
365 1126
插件 1126
inform 1126
24-@@ 1125
tari@@ 1125
tives 1125
dl@@ 1125
萝卜 1125
干洗 1125
60ml 1125
won@@ 1124
02@@ 1124
钟 1124
通讯 1124
connector 1123
古风 1123
versatile 1123
td 1123
握 1123
bitcoin 1123
露背 1122
奏 1122
塔罗 1122
递 1122
exercise 1122
shaped 1121
蜡笔小新 1121
fix 1121
化妆水 1121
oh@@ 1120
turn 1120
electronics 1120
走光 1120
世纪 1120
hold 1120
韩风 1120
年轻 1119
收音机 1119
secure 1119
copper 1118
整 1118
lead@@ 1118
询问 1118
文本 1118
ig 1118
單 1118
suit@@ 1117
考试 1117
芝@@ 1117
conduc@@ 1117
ep 1116
arm@@ 1116
driver 1116
魂 1116
tos 1116
pod 1115
sleeves 1115
pon@@ 1115
cho 1115
戶 1115
如下 1115
scarf 1114
ticket 1114
冷淡 1114
新版 1114
柏 1114
document 1114
最终 1114
势 1114
consult@@ 1114
紧 1113
工装裤 1113
sel 1113
万圣 1113
凝@@ 1113
cuisine 1113
recovery 1113
outside 1112
福利 1112
fuji@@ 1112
fc 1112
ie@@ 1112
church 1112
远程 1111
咖啡豆 1111
葡萄@@ 1111
盐@@ 1111
要@@ 1111
证@@ 1111
摄像机 1110
20g 1110
lounge 1110
穿戴 1110
爬@@ 1110
roman@@ 1110
mind 1110
across 1110
弦 1109
磁力 1109
never 1109
部门 1109
shirts 1108
ison 1108
105 1108
circu@@ 1108
酮 1108
艇 1108
a7 1108
250g 1108
heavy 1107
ion 1107
升降 1107
ua 1107
► 1107
革 1107
么 1107
县 1107
笑脸 1107
常见 1107
来源 1107
场@@ 1106
kin 1106
心机 1106
化学 1106
渐变 1106
inside 1106
汪 1106
dates 1106
records 1106
請 1106
讲 1105
functions 1105
耶 1105
强大 1105
城堡 1105
properties 1105
plug 1104
aming 1104
慢跑 1104
ace@@ 1104
higher 1104
蔬果 1104
dm@@ 1104
agreement 1104
疗愈 1103
5a 1103
colorful 1103
跑@@ 1103
signal 1103
allow 1103
tren@@ 1103
seal@@ 1102
strength 1102
仪器 1102
米妮 1102
框架 1101
flavor 1101
吊 1101
鸭舌帽 1101
祛@@ 1101
什 1101
buil@@ 1101
icon 1101
幻 1101
玩家 1101
addition 1100
ry@@ 1100
瑜珈 1099
inten@@ 1099
loaded 1099
86-@@ 1099
2016-0@@ 1099
裁 1098
108 1098
见@@ 1098
漫@@ 1098
ordin@@ 1098
开业 1098
特产 1098
trousers 1097
突@@ 1097
ful@@ 1097
dp@@ 1097
手绘 1097
胃 1097
步@@ 1096
棕 1096
raw 1096
ien@@ 1096
a3 1096
智 1096
库存 1095
博美 1095
hen@@ 1095
狂 1095
compu@@ 1095
princip@@ 1095
比较 1095
along 1095
2,@@ 1095
所需 1095
续@@ 1094
colu@@ 1094
橘 1094
车内 1094
聯 1094
亚麻 1093
内衬 1093
梨 1093
ah@@ 1093
trade@@ 1093
枣 1093
洁净 1093
历@@ 1093
車 1093
灸 1092
ring@@ 1092
neu@@ 1092
md@@ 1092
export 1092
宏@@ 1092
images 1092
fair 1092
puri@@ 1091
clic@@ 1091
jo 1091
咸 1091
单击 1091
functional 1090
担 1090
introduction 1090
mate@@ 1089
bi 1089
莫代尔 1089
who@@ 1089
止@@ 1088
运动@@ 1088
hooded 1088
定时 1088
nice 1088
lan 1088
恋 1088
大家 1088
致@@ 1088
navi@@ 1087
凡 1087
旗舰 1087
救 1087
棕@@ 1087
荷兰 1087
張 1087
除了 1087
по@@ 1087
mos 1086
ass 1086
refrigerator 1086
发膜 1086
旋 1086
dp 1086
apps 1086
場 1086
commit@@ 1086
气囊 1085
aux 1085
死 1085
impact 1085
articles 1085
institute 1085
缺@@ 1085
展会 1085
manufacturer 1084
米兰 1084
腹@@ 1084
comfort 1084
yen 1084
problems 1084
资金 1084
各种各样 1084
scal@@ 1083
护栏 1083
strategy 1083
skills 1083
program@@ 1083
阶段 1083
rings 1082
dragon 1082
distribution 1082
名片 1082
a9 1082
一月 1082
error 1082
feet 1081
lish@@ 1081
gopro 1081
ports 1081
rer 1081
葵 1081
methods 1081
secu@@ 1081
mosquito 1080
镀@@ 1080
a70 1080
提示 1080
领先 1080
ä@@ 1080
试用 1079
叠 1079
单鞋 1079
ot@@ 1079
jiang 1079
亮片 1079
秋装 1079
ction 1078
键@@ 1078
袋@@ 1078
a4 1078
旺 1078
景观 1078
浮 1077
nis@@ 1077
野餐 1077
integr@@ 1077
thursday 1077
等@@ 1076
urban 1076
度假村 1076
吊牌 1076
碧@@ 1076
茶几 1075
18-@@ 1075
医@@ 1075
层@@ 1075
杨@@ 1075
象@@ 1075
奖金 1075
exam@@ 1075
台式 1074
母亲节 1074
症 1074
愿 1074
女人 1074
克兰 1074
直径 1073
jac@@ 1073
tra 1073
止滑 1073
xy 1073
玛瑙 1072
防潮 1072
链@@ 1072
永久 1072
辛@@ 1072
follo@@ 1072
也是 1072
bou@@ 1071
atch 1071
斯坦 1071
食指 1071
挂画 1071
ito 1071
黑头 1071
腾 1070
脸@@ 1070
cannot 1070
椅@@ 1069
gray 1069
-free 1069
绘 1069
团体 1069
甜点 1069
jp@@ 1069
椅子 1068
英尺 1068
轻量 1068
chil@@ 1068
空运 1068
fal@@ 1068
粗@@ 1068
clu@@ 1068
商标 1068
c3 1067
衣架 1067
far 1067
highest 1067
後 1067
hip@@ 1066
mol@@ 1066
爸爸 1066
fon@@ 1066
床上 1066
告诉 1066
thy@@ 1066
russian 1066
with@@ 1066
x50 1065
therapy 1065
target 1065
容器 1065
呼@@ 1065
dou@@ 1065
eu 1065
ram 1065
焦糖 1065
dinner 1064
alarm 1064
” 1064
路亚 1064
营养@@ 1064
traffic 1064
顾 1064
eg@@ 1063
聚 1063
scan@@ 1063
默认 1063
rit@@ 1062
woven 1062
三层 1062
柳@@ 1062
辑 1062
wednesday 1062
tuesday 1062
rock 1061
sugar 1061
互@@ 1061
org@@ 1061
128 1060
叶黄素 1060
una 1060
越野 1060
fic@@ 1060
低价 1060
订阅 1060
各地 1060
花边 1059
dings 1059
镜面 1059
避免 1059
jing 1059
息@@ 1059
ared 1058
hospital 1058
介 1058
手腕 1057
屁@@ 1057
cha@@ 1057
冠 1057
防漏 1057
原宿风 1057
守宫 1057
共同 1057
表格 1057
口腔 1056
遮阳伞 1056
a50 1056
normal 1056
井 1056
澡 1056
纹@@ 1056
窗口 1056
指导 1056
opt 1056
dio@@ 1055
lotion 1055
仪@@ 1055
dried 1055
reflec@@ 1055
boat 1055
工具@@ 1055
露台 1055
organic 1055
44mm 1055
mp3 1055
探索 1055
江@@ 1055
non-slip 1054
前后 1054
sweat@@ 1054
雕@@ 1054
brea@@ 1054
水桶 1054
ray 1054
印尼 1054
eos 1053
无毒 1053
writing 1053
mail@@ 1053
病@@ 1053
iry 1053
没 1053
ра@@ 1053
tat@@ 1052
coupon 1052
2002 1052
备份 1052
马达 1052
tap@@ 1052
有趣 1052
ado 1052
爵 1052
continu@@ 1052
execu@@ 1052
卫@@ 1051
粉丝 1051
娃 1051
酱@@ 1051
化工 1051
understand 1051
organization 1051
火车站 1051
chocolate 1050
rot@@ 1050
馨 1050
powered 1050
宜@@ 1050
厂@@ 1050
40mm 1050
唯一 1050
布丁 1050
捕 1049
鱼竿 1049
ight 1049
而且 1049
separ@@ 1048
tail 1048
ame 1048
零@@ 1048
thick@@ 1047
35-@@ 1047
猎@@ 1047
dent 1047
king@@ 1047
rules 1047
awards 1047
reached 1047
后视镜 1046
kt 1046
avi@@ 1046
joint 1046
怀旧 1046
防雨 1046
拆封 1046
大豆 1046
老鼠 1046
developed 1046
powerful 1045
fairy 1045
a1 1045
蛋@@ 1045
die 1045
美乐 1045
散 1045
九月 1045
數 1045
lat@@ 1044
考虑 1044
黏@@ 1043
hook 1043
时光 1043
wild 1043
toiletries 1043
lio 1043
retur@@ 1043
fragrance 1042
蚊帐 1042
guitar 1042
int@@ 1042
走路 1042
梦幻 1042
2018-@@ 1042
太空 1042
税@@ 1042
援 1041
orange 1041
hp@@ 1041
verse 1041
略 1041
« 1041
5-star 1041
特大 1040
clean@@ 1040
导入 1040
130@@ 1040
practice 1040
拌@@ 1040
roun@@ 1039
dium 1039
溶 1039
maz@@ 1039
respec@@ 1039
enterprises 1039
▪ 1038
bet 1038
装饰品 1038
stal 1038
vo 1038
刮痧 1038
lations 1038
s.com 1038
essence 1037
中老年 1037
金刚 1037
chri@@ 1037
股@@ 1037
致力 1037
干湿 1036
facial 1036
名字 1036
sign@@ 1036
ith 1036
薰香 1036
ously 1036
و@@ 1036
肥@@ 1035
ide 1035
芬@@ 1035
objec@@ 1035
trip 1035
8g 1035
á@@ 1035
123 1034
蛋黄 1034
统 1034
bring 1034
夹心 1034
fen@@ 1033
finger 1033
纽西兰 1033
录音 1033
鞋套 1033
遗@@ 1033
cisco 1033
理念 1033
✪ 1033
automation 1033
i-@@ 1032
post@@ 1032
雨刷 1032
诚 1032
所在 1032
tips 1031
刀头 1031
育@@ 1031
placed 1031
粉扑 1030
队@@ 1030
舞@@ 1030
sta 1030
nintendo 1029
embroidery 1029
补光灯 1029
customi@@ 1029
“ 1029
low-@@ 1029
13pro 1029
控@@ 1029
parti@@ 1029
a22 1029
— 1029
bility 1029
伦@@ 1029
really 1029
效@@ 1029
sear@@ 1029
saw 1028
amp@@ 1028
硬盘 1028
吸湿 1028
drinks 1028
final 1028
确 1028
些 1028
ently 1028
recogni@@ 1027
x3@@ 1027
星空 1027
220@@ 1027
kb 1027
術 1027
站@@ 1026
nie 1026
防止 1026
扫描 1026
轻巧 1026
flight 1026
合格 1026
laundry 1025
ju 1025
粉底 1025
outer 1025
messenger 1025
安抚 1025
transmission 1025
荣誉 1025
耶@@ 1025
邮 1025
responsible 1025
记录器 1024
万能 1024
双头 1024
铃@@ 1024
rgb 1024
299 1024
御 1024
distribu@@ 1024
satis@@ 1024
酯 1024
六月 1024
十月 1024
vac@@ 1023
分体 1023
'd 1023
力量 1023
聊天 1023
☀ 1023
敏感 1023
零嘴 1023
session 1023
登记 1023
律师 1023
sert 1022
yan@@ 1022
暴@@ 1022
卖家 1022
蕾 1022
危@@ 1022
logistics 1022
托盘 1021
furniture 1021
驱 1021
ious 1021
á 1021
以便 1021
月光 1020
橙 1020
memb@@ 1020
nfc 1020
uri@@ 1020
count 1020
谷@@ 1020
杯子 1020
粉饼 1019
肴 1019
cycling 1018
谷歌 1018
corporation 1018
祝 1018
粉红 1018
爷 1018
s8 1018
btc 1018
sleep 1017
warranty 1017
fox 1017
sei@@ 1017
露肩 1017
cies 1017
参观 1017
事情 1017
评分 1017
模板 1016
purchasing 1016
斜跨 1016
farm 1016
铁板 1016
每人 1016
visitors 1016
雾化 1015
zealand 1015
第四 1015
猪@@ 1015
始@@ 1015
工作服 1014
蛋白@@ 1014
暴力 1014
护手霜 1014
营业 1014
mt 1014
生态 1014
许 1014
从@@ 1014
cf@@ 1013
川@@ 1013
в 1013
十字@@ 1012
grin@@ 1012
☘ 1012
300ml 1012
殖 1012
严@@ 1012
russia 1012
始 1012
reliable 1012
tac@@ 1011
摄@@ 1011
时钟 1011
溪 1011
theme 1011
年人 1011
shampoo 1010
pain@@ 1010
spon@@ 1010
hub 1010
din 1010
藤@@ 1010
棉袜 1010
莎@@ 1010
tp@@ 1010
john 1010
锈 1009
tire 1009
lip 1009
clar@@ 1009
扎 1009
扫@@ 1009
证明 1009
prec@@ 1009
js 1009
denim 1008
驱蚊 1008
hydro@@ 1008
xl@@ 1008
熊猫 1008
特色 1008
五月 1008
喔 1008
550 1008
m. 1008
ado@@ 1007
dur@@ 1007
150ml 1007
care@@ 1007
登@@ 1007
纪录 1007
遵@@ 1007
meal 1006
750 1006
..@@ 1006
海边 1006
mn@@ 1006
engine@@ 1006
重机 1006
著名 1006
至少 1006
广东 1006
戴@@ 1005
rep@@ 1005
wri@@ 1005
监测 1005
扁@@ 1005
zip 1005
ined 1005
everything 1005
衣物 1005
ht@@ 1005
saint 1004
lead 1004
跳绳 1004
hand-@@ 1003
mei 1003
1mm 1003
glue 1003
宾士 1003
quickly 1003
expres@@ 1003
精度 1003
攻@@ 1003
纺@@ 1002
sneakers 1002
170 1002
infor@@ 1002
dior 1002
滴 1002
印章 1002
commerce 1002
largest 1002
trust 1002
cover@@ 1001
遮 1001
long-sleeved 1001
removal 1001
细节 1001
pati@@ 1001
given 1001
木耳 1001
comprehensive 1000
占@@ 1000
及其 1000
香辣 1000
疑 1000
面额 999
automotive 999
figure 999
治@@ 999
sour@@ 999
porting 999
汇@@ 999
relevant 999
crypto@@ 999
authentic 998
手工皂 998
bby 998
荣耀 998
may@@ 998
溶@@ 998
320 998
wordpress 998
fting 997
ish@@ 997
冠军 997
advertising 997
miss 997
07@@ 997
职 997
优秀 997
nur@@ 996
矫正 996
egg 996
饰@@ 996
适@@ 996
把套 996
bc 996
got 996
hood 995
绿茶 995
dat@@ 995
办 995
valid 995
jia 994
yamaha 994
5v 994
lift 994
扭@@ 994
♦ 994
举办 994
fer 993
轩 993
teach@@ 993
雕刻 993
2024 993
废@@ 993
彩票 993
ف@@ 993
ownership 993
clutch 992
unisex 992
a5 992
回馈 992
bration 992
试验 992
gau@@ 992
芳 992
不限 992
兑换 992
started 992
ui 992
今 992
与@@ 992
嚼 991
rd 991
takes 991
voice 990
军事 990
woman 990
扑@@ 990
毒 990
ssd 990
5z 990
mand@@ 990
inspection 990
industries 990
z-@@ 989
多少 989
箭 988
exper@@ 988
conven@@ 988
女表 988
之处 988
枫@@ 987
rise 987
ami 987
怎么 987
均@@ 987
開 987
選 987
遮光 986
电容 986
chen@@ 986
robot 986
60g 986
在此 986
丝袜 985
驾驶 985
decorative 985
football 985
端口 985
拍@@ 985
焊接 985
专辑 985
medicine 985
果汁 985
举行 985
xiao@@ 984
snow 984
full-@@ 984
长效 984
fortun@@ 984
guarantee 984
promptly 984
fitted 983
蚕丝 983
料@@ 983
lightweight 983
全棉 983
中式 983
护具 983
文胸 983
纯天然 983
物品 983
行政 983
抵@@ 982
domin@@ 982
bla@@ 982
石英 982
窄 982
mix@@ 982
吃鸡 982
精密 982
马上 982
设@@ 982
每晚 982
login 982
变频 981
原石 981
护垫 981
ards 981
周岁 981
ster@@ 981
宗@@ 981
导致 981
tely 980
崎 980
tas@@ 980
mr. 980
促进 980
请@@ 980
那些 980
sat 980
梳@@ 979
绝对 979
lower 979
天线 979
涂鸦 979
轨道 979
传说 978
绘画 978
卡扣 978
suction 978
blockchain 978
生成 978
was@@ 977
狼 977
tification 977
gym 977
宴会 977
游客 977
七彩 976
储物 976
载@@ 976
丝绒 976
新型 976
9-0@@ 976
tomorrow 976
programs 976
销@@ 975
quick@@ 975
mach@@ 975
limit 975
疗 975
宅 975
logical 975
aki 975
来到 975
guangdong 975
shot 974
开运 974
季@@ 974
传真 974
烤肉 974
forum 974
lumin@@ 973
root 973
龙猫 973
问@@ 973
bott@@ 972
suspen@@ 972
踝 972
clear@@ 972
边框 972
芝 972
柴 972
杀@@ 972
retail 972
rt@@ 972
104 972
深度 972
早 972
议 972
arri@@ 971
美发 971
透视 971
访 971
xxl 971
kers 971
软管 971
函数 971
separate 970
umbrella 970
毒@@ 970
cpu 970
os@@ 970
练@@ 970
presen@@ 970
cn@@ 970
技能 970
represen@@ 970
listed 970
ski 969
pair@@ 969
刺猬 969
兽 969
sus@@ 969
漱@@ 969
1st 969
拼 969
develop 969
contacting 969
г@@ 969
diap@@ 968
面料 968
access@@ 968
med@@ 968
豹 968
陶@@ 968
复制 968
honor 968
69@@ 968
er-@@ 968
尊@@ 968
demand 968
明天 968
resistant 967
气动 967
虾@@ 967
蕾@@ 967
调查 967
projec@@ 966
一套 966
玩@@ 966
台南 966
casa 966
websites 966
水滴 965
蘑菇 965
拌 965
茶具 965
耗 965
arrival 964
疆 964
2xl 964
曲面 964
肯@@ 964
63@@ 964
complex 964
众@@ 964
權 964
fund 964
transaction 964
stric@@ 963
hua 963
小学生 963
悬@@ 963
今@@ 963
background 963
pi 963
批 963
亞 963
浦 962
中型 962
乌龙 962
挂式 962
tural 962
暗黑 962
构 962
ud 962
對 962
語 962
extre@@ 961
一口 961
tio 961
against 961
制造商 961
mall 961
幻@@ 961
椰@@ 961
眼线 961
miles 961
瓷@@ 960
alu@@ 960
令人 960
long-term 960
shared 960
振@@ 959
20mm 959
absorb@@ 959
pencil 959
熨@@ 959
电梯 959
八月 959
than@@ 959
宁@@ 959
红豆 959
sv@@ 959
點 959
家族 958
br 958
监视器 958
associ@@ 958
密度 958
特点 958
几个 958
ironing 957
jer@@ 957
tered 957
bella 957
恒 957
geor@@ 956
lock@@ 956
mur@@ 956
22mm 956
鸡腿 956
赋活 956
演 956
申@@ 956
所有权 956
moun@@ 955
cars 955
姐 955
dru@@ 955
feren@@ 955
d2 955
greece 955
公告 955
這 955
祝@@ 954
quil@@ 954
cor 954
炮 954
adi@@ 954
馒头 954
刚 954
财务 954
bon 954
mexico 954
杭州 954
values 954
头层 953
启@@ 953
pal 953
氧@@ 953
汉服 953
普通 953
四月 953
floral 952
笑 952
蜘蛛@@ 952
sto 952
24v 952
acks 952
肉干 952
-up 952
犬猫 952
dly 952
贝壳 952
draw@@ 951
帽@@ 951
减压 951
阳@@ 951
came 951
锡 951
生产线 951
expo 951
训 950
africa 950
桂@@ 950
among 950
卤@@ 950
投资者 950
tiv@@ 949
regul@@ 949
箱@@ 949
羽毛球 949
炒@@ 949
gr 949
115 949
born 948
自取 948
卓越 948
var@@ 948
forex 948
出租 948
camping 947
sors 947
turkey 947
指甲油 947
社交 947
gol@@ 946
hs 946
理想 946
worldwide 946
upload 946
半袖 945
smart@@ 945
lenovo 945
声音 945
割@@ 945
变色 945
founded 945
economy 945
那里 945
desi@@ 944
mn 944
lux 944
专属 944
eat 944
潘@@ 944
极致 944
艺@@ 944
transportation 944
装修 944
续 944
uan 943
week@@ 943
oun@@ 943
lus 943
d3 943
人偶 943
护肤 943
ries 943
〜 943
eye@@ 942
tory 942
green@@ 942
电线 942
ix@@ 942
板桥 942
indi@@ 942
睡袋 942
qi 942
炒 942
剧院 942
saving 941
铸@@ 941
失 941
橱柜 941
certain 941
蜥蜴 941
净化器 940
喷雾器 940
sample 940
无缝 940
赫 940
extended 940
甚至 940
霍@@ 940
输@@ 940
收费 940
闻 939
笔袋 939
command 939
purse 939
sgs 939
ell 939
issues 939
interest 939
回复 939
wind@@ 938
1a 938
黛 938
a21s 938
货到 938
七月 938
offered 938
flexible 937
败 937
箔 937
粹 937
欣@@ 937
tents 937
crea@@ 937
庭 937
莱尔 937
阿拉伯 937
2001 937
采取 937
two-piece 936
阿尔@@ 936
lunch 936
rc 936
米粉 936
tc 936
杯垫 935
冒险 935
电流 935
honey 935
凤@@ 935
方向盘 935
expert 935
欧元 935
eve 934
辨@@ 934
种子 934
帐 934
际 934
碗@@ 934
cultural 934
错 934
尚 933
胺基酸 933
coating 933
脚踏车 933
明信片 933
序号 933
子女 933
concept 933
焕@@ 932
chart 932
临@@ 932
u.s. 932
才能 932
php 932
ر@@ 932
20w 931
侧边 931
帝@@ 931
正宗 931
2016-@@ 931
勒@@ 931
涉@@ 931
emi@@ 931
exc@@ 931
zy 930
盆栽 930
40-@@ 930
r15 930
lost 930
故障 930
档案 930
ment@@ 929
褶 929
增 929
installed 929
50-@@ 929
famili@@ 929
embroidered 928
fav@@ 928
foam 928
超低 928
冲浪 928
呼吸 928
sul@@ 928
hydraulic 928
shows 928
专注 928
雾@@ 927
40g 927
面包@@ 927
非洲 927
油画 927
256@@ 927
nit@@ 927
朗@@ 927
热裤 927
胖@@ 927
鱼油 927
supported 927
might 927
耗@@ 926
ips 926
shock@@ 926
stable 926
25-@@ 926
asure 926
辅@@ 926
雕 926
score 926
纳米 926
interested 926
实施 926
imple@@ 926
tape 925
手办 925
nas@@ 925
彼@@ 925
按压 925
平方 925
抑菌 925
sit@@ 925
野生 925
upon 925
met 925
微波炉 925
经过 925
日元 925
來 925
s. 924
alph@@ 924
vivo@@ 924
海水 924
产后 924
大人 924
荷 924
车身 924
live@@ 924
角蛙 924
ref@@ 923
mal 923
欢@@ 923
hab@@ 923
yourself 923
comment 923
人数 923
體 923
ater 922
研磨 922
benz 922
air-@@ 922
园艺 922
111 922
public@@ 922
holidays 922
lis@@ 922
惠 922
blade 921
脚垫 921
cry@@ 921
nap@@ 921
防寒 921
批发价 921
independent 921
一步 921
真实 921
剪刀 921
吐司 921
规划 921
地铁站 921
人们 921
大衣 920
mile 920
phase 920
nylon 919
mmy 919
16-@@ 919
artifact 919
彩妆 919
09@@ 919
combin@@ 919
似 919
onal 918
fake 918
姆@@ 918
脚蹬 918
forward 918
gon@@ 918
alli@@ 918
薇 918
simply 918
更加 918
镜子 917
kind 917
痘@@ 917
indian 917
客服 917
广播 917
marri@@ 916
native 916
人工 916
途 916
sharing 916
事业 916
70-@@ 916
mari@@ 916
裁@@ 915
政@@ 915
wang 915
ices 915
note9 915
螺纹 915
全方位 915
cau@@ 915
gress 915
operations 915
结合 915
ل@@ 915
串@@ 914
interior 914
cand@@ 914
upgrade 914
prin@@ 914
杰 914
容@@ 914
reg@@ 914
invest@@ 914
rm@@ 913
beads 913
swi@@ 913
girl@@ 913
zo 913
季节 913
枕@@ 913
便器 913
泡茶 913
指数 913
货物 912
ual 912
睡觉 912
absor@@ 912
bes 912
最爱 912
万向 912
谢谢 912
vil 912
尿垫 912
停止 912
上架 912
组成 912
ing-@@ 911
棉衣 911
dation 911
thanks 911
gas@@ 911
dn 911
path 911
existing 911
102 910
情人 910
zipper 910
哑光 910
趣味 910
一点 910
左右 910
fuel 910
lowest 910
13promax 910
hong@@ 910
滚轮 910
ideal 909
划@@ 909
secon@@ 909
坡 909
scene 909
mmer 909
backup 909
绒毛 909
tty 909
图表 909
cia 909
cross-@@ 908
月亮 908
菊 908
股票 908
on-site 908
hoodie 907
dynamic 907
branch 907
地理 907
instagram 907
香蕉 907
gets 907
寿命 907
谈 907
我@@ 907
沟通 907
touri@@ 907
員 907
bucket 906
combination 906
畅销 906
摄影机 906
釉 906
山东 906
ette 905
纯水 905
精美 905
火车 905
丹宁 905
hangzhou 905
shin@@ 904
lay 904
ye 904
各式 904
噜 904
疾@@ 904
prefer 904
scri@@ 904
groups 904
roller 903
灌@@ 903
法斗 903
stration 903
ush 903
dden 903
stocks 903
京都 903
speciali@@ 903
挂架 902
sf@@ 902
late 902
lightning 902
benefit 902
看看 902
芬 902
寿 902
acqui@@ 902
220v 901
packing 901
安心 901
芋头 901
钱夹 901
割 901
rapi@@ 901
痒 901
豹纹 901
待@@ 901
150g 901
大会 901
二月 901
shield 900
爆米花 900
一键 900
loading 900
83@@ 900
graph 899
校园 899
漫威 899
法兰@@ 899
tec@@ 899
blu@@ 899
feng 899
准@@ 899
ast@@ 899
10g 899
law@@ 899
含税 899
container 898
管道 898
lip@@ 898
聚拢 898
击@@ 898
忘@@ 898
生理 898
讯@@ 898
饮品 898
committee 898
kasut 897
sof@@ 897
斑@@ 897
54@@ 897
spar@@ 897
三角裤 897
牧@@ 897
角度 897
emplo@@ 897
價 897
報 897
炎 896
端@@ 896
绵@@ 896
guan 896
kra@@ 896
必要 896
archives 896
insta@@ 895
并@@ 895
2nd 895
徒步 895
kl 895
aj@@ 895
小红 895
赞@@ 895
垂@@ 894
］ 894
rabbit 894
挡风 894
贺@@ 894
排名 894
diag@@ 893
5m 893
实惠 893
知@@ 893
tell 893
費 893
parameters 893
acle 892
tone 892
military 892
wan 892
酥@@ 892
一位 892
直流 891
units 891
nb 891
launch 891
南瓜 891
restaurants 891
堆@@ 890
dist@@ 890
kil@@ 890
等等 890
finance 890
敦 890
偏光 889
hai 889
reference 889
patent 889
啾 889
zer@@ 889
• 889
瓜子 889
線 889
provider 889
sic@@ 888
ord@@ 888
welding 888
tili@@ 888
手帕 888
沙龙 888
电瓶 888
光疗 888
question 888
spirit 888
formula 887
bell 887
vers@@ 887
散热器 887
cel 887
大多数 887
ato 887
collect 887
convert 887
fort 887
ö@@ 887
面霜 886
xin 886
5-minute 886
ration 886
ships 886
琥@@ 886
物质 886
ld@@ 886
cad 886
tific@@ 885
储存 885
执@@ 885
rac@@ 885
爱情 885
sab@@ 885
ous@@ 885
achieve 885
努力 885
3mm 884
切换 884
摸 884
cancel@@ 884
die@@ 884
绳@@ 884
特级 884
custo@@ 884
热线 884
rechargeable 883
2g 883
刹车 883
原料 883
减龄 883
病毒 883
液压 883
m12 882
渔@@ 882
森系 882
类似 882
乌鱼子 882
often 882
ris 881
bone 881
电视@@ 881
价@@ 881
冲泡 881
starting 881
冻@@ 881
煞 881
tm 881
妍 881
蹦@@ 881
食材 881
意味着 881
dogs 880
grey 880
salt 880
多多 880
督 880
nd 880
冲击 880
st. 880
renov@@ 880
网址 880
ن@@ 880
aya 879
mid 879
辣椒酱 879
卧@@ 879
← 879
此外 879
bikini 878
measu@@ 878
萤@@ 878
身份 877
nic@@ 877
kam@@ 877
x5 877
v2 877
conversion 877
hq@@ 877
巧 877
路线 877
inaccuracies 877
jelly 876
wai@@ 876
百褶裙 876
purple 876
inger 876
getting 876
湿@@ 876
valley 876
恋@@ 876
约会 876
暖气 876
外部 875
屎 875
slip 875
cal 875
屏@@ 875
潮男 875
皮质 875
123@@ 875
迎@@ 875
西服 875
收入 875
sleeveless 874
kun@@ 874
德里 874
皮靴 874
4a 874
clock 874
顾客 874
amazon 873
14-@@ 873
paren@@ 873
sized 873
餐饮 873
chron@@ 873
贴画 873
response 873
老师 873
美好 873
sten 873
大师 873
innovative 873
過 873
蒸汽 872
flip 872
播放器 872
黎@@ 872
pr 872
舍 872
islands 872
deluxe 871
optical 871
adap@@ 871
教堂 871
sm-@@ 871
ü@@ 871
protected 871
野营 870
yar@@ 870
socket 870
蓬@@ 870
泳@@ 870
virtual 870
author 870
爽@@ 870
镀金 869
平底鞋 869
动作 869
gate@@ 869
纽@@ 869
ats@@ 869
隐@@ 869
intere@@ 869
泥@@ 869
塞尔 869
partic@@ 868
wer@@ 868
paint 868
eth@@ 868
thai 868
resistance 868
际@@ 868
attention 868
dn@@ 868
视图 868
顾问 868
预测 868
euro@@ 868
vertical 867
champi@@ 867
茨 867
surve@@ 867
轨 867
暗 867
杖 867
锻炼 867
vic 867
gence 867
received 867
ни@@ 867
ched 866
tract 866
变压器 866
cing 866
羊绒 866
convention 866
洗浴 866
棚 865
spir@@ 865
dun@@ 865
小姐 865
hack 865
欧式 864
12h 864
大功率 864
幅 864
regar@@ 864
valu@@ 864
190 864
提取 864
构@@ 864
享有 864
公寓式 864
ceramic 863
染发 863
fish@@ 863
证件 863
定型 863
s9 863
三丽鸥 863
外汇 863
1s 863
停 863
noise 862
夜视 862
合同 862
stant 862
compact 862
早教 862
拌面 862
海外 862
数据库 862
inclusive 861
骑@@ 861
legg@@ 861
姿 861
皮筋 861
messages 861
sty 861
i13 861
脑 861
maker 861
高中 861
workshop 861
脖 861
温柔 861
gm 860
商用 860
发行 860
上班 860
鞋带 860
spanish 860
tek 860
提出 860
responsibility 860
yard 859
nin@@ 859
挖@@ 859
晒@@ 859
征 859
开幕 859
脐 858
cook@@ 858
a73 858
braz@@ 858
co-@@ 858
later 858
消防 858
钥 858
酱油 858
租 858
保险@@ 857
cooking 857
tian 857
everyone 857
啃 857
2019-@@ 857
non 856
tiger 856
mers 856
smooth 856
兔@@ 856
羽毛 856
fm 856
残@@ 856
casting 856
television 856
⭕ 856
大道 856
ع@@ 856
successfully 856
pair 855
perfume 855
rel 855
帖 855
wave 855
怀@@ 855
滚 855
鼻毛 855
航班 855
hoo@@ 854
sor 854
lled 854
contrac@@ 854
onic 854
nac 854
包巾 854
企鹅 854
存款 854
规@@ 854
sex@@ 853
adhesive 853
dollar 853
骑 853
ancy 853
competi@@ 853
though 853
不可 853
deal 853
冲洗 852
贵宾 852
水箱 852
扳手 852
雨鞋 852
machines 852
fan@@ 852
ras@@ 852
contribu@@ 852
done 852
2015-0@@ 852
pec@@ 851
弯 851
防砸 851
小方 851
集中 851
大杯 851
blocks 851
competition 851
四川 851
amen@@ 851
microwave 851
膳 850
of@@ 850
超声波 850
蚁 850
靠 850
兰蔻 850
趋势 850
taking 850
购@@ 849
bai@@ 849
budget 849
complimentary 849
hui@@ 849
筝 849
＃ 849
docu@@ 848
handbag 848
hard@@ 848
代谢 848
ups 848
收腰 848
剑@@ 848
aging 848
贴布 848
650 848
jersey 847
lovers 847
菱格 847
肤@@ 847
jp 847
hiking 846
carry 846
spicy 846
寿@@ 846
抛 846
激活 846
蟹 846
castle 846
標 846
bang@@ 845
dish 845
节省 845
丢 845
壁画 845
防汗 845
撞 845
舱 844
答@@ 844
独角兽 844
tina 844
cape 844
bandai 844
橙@@ 844
极速 844
hepa 844
amenities 844
snack 843
再生 843
守@@ 843
两种 843
胡 843
vc 843
ols 842
basketball 842
snow@@ 842
earth 842
刘@@ 842
72@@ 842
bot 842
绵 842
天竺鼠 842
county 842
thern 842
旧@@ 842
insi@@ 842
r17 842
接待 842
graphic 841
detection 841
纸盒 841
quanti@@ 841
围@@ 841
cl 841
减肥 841
企 841
剧@@ 841
typec 840
converter 840
闭@@ 840
座垫 840
primary 840
edi@@ 840
expan@@ 840
prevent 840
膝盖 840
壁贴 840
68@@ 840
尼斯 840
atory 840
creating 840
柏林 840
successful 840
嘉 839
齐全 839
s7 839
水泥 839
纪@@ 839
祖@@ 838
illa 838
嫩@@ 838
capsu@@ 838
tam@@ 838
重庆 838
tickets 838
evalu@@ 838
hill 838
房地产 838
high-quality 837
刚@@ 837
香料 837
无论 837
feedback 837
accounts 837
纸袋 837
来说 837
主办 837
deal@@ 836
圆头 836
食用 836
physical 836
players 836
myprotein 836
算@@ 836
see@@ 836
ро@@ 836
mentation 835
立体声 835
货车 835
功 835
barcelona 835
腰果 835
之旅 835
dubai 835
贡@@ 835
dryer 834
防雾 834
魅力 834
老板 834
烫@@ 834
绝版 834
威尼斯 834
damage 834
knife 833
diameter 833
helps 833
胸垫 833
x7 833
头灯 833
band@@ 833
deodorant 833
床单 833
誉 833
畅 833
neo 833
reply 833
暗@@ 833
suppli@@ 833
initi@@ 833
imported 832
mold 832
gil@@ 832
即时 832
浴袍 832
eh@@ 832
gp@@ 832
toronto 832
real@@ 831
狂@@ 831
certified 831
驾@@ 831
拖把 831
迪奥 831
screw 831
solu@@ 831
雷射 831
卫浴 831
18k 830
itation 830
nic 830
kir@@ 830
抹胸 830
ora 830
chic@@ 830
ena 830
鳄鱼 830
by-@@ 830
慢 830
启 830
something 830
ghz 829
杏@@ 829
特瑞 829
reo 829
动画 829
senior 829
cin@@ 829
ware@@ 829
麦当劳 829
伦比 829
route 829
接触 829
duration 829
館 829
estab@@ 829
追踪 828
load@@ 828
gor@@ 828
similar 828
眼霜 828
翡翠 828
朝@@ 828
manufacturers 828
实际 828
雏菊 827
牙齿 827
spf@@ 827
2015-@@ 827
orien@@ 827
秘密 827
either 827
貔貅 827
橄榄@@ 826
boost 826
柴犬 826
hote@@ 826
手臂 825
2a 825
✌ 825
强度 825
承诺 825
ante 825
人民 825
ables 825
一下 825
承 824
hip 824
三代 824
visual 824
工程师 824
supplier 824
球场 824
佳能 823
pip@@ 823
徽@@ 823
麻花 823
细胞 823
海盐 823
relation@@ 823
wise 823
聚会 823
loy@@ 823
shandong 823
continuous 822
论@@ 822
spee@@ 822
wers 822
translation 822
小个子 822
dvb-@@ 822
railway 822
litter 821
polish 821
dian 821
j-@@ 821
truck 821
饱@@ 821
advance 821
introduc@@ 821
美洲 821
曾 821
santa 821
vista 821
sydney 821
毛呢 820
韦@@ 820
宇宙 820
bad 820
滤心 820
lodge 820
棉裤 819
ankle 819
modified 819
新生 819
brief@@ 819
修剪 819
155 819
冈 819
采购 819
站点 819
keeping 818
kee@@ 818
伏 818
出生 818
通勤 818
邀请 818
difference 818
eyes 817
jump@@ 817
bee 817
sche@@ 817
两栖 817
永远 817
施@@ 817
от@@ 817
insole 816
kal@@ 816
large-@@ 816
lun@@ 816
房屋 816
钩@@ 816
啤酒 816
电热 816
房子 816
210 816
外挂 816
乳酸菌 816
荣获 816
本站 816
effects 815
sterling 815
tennis 815
激 815
gla@@ 815
肠@@ 815
精萃 815
ately 815
管理@@ 814
藤 814
dan 814
腋下 814
od 814
mate 814
shor@@ 814
服@@ 814
黏贴 814
foodpanda 814
古典 814
opti@@ 814
界面 814
javascript 814
decor@@ 813
真丝 813
cheese 813
直立 813
chen 813
花盆 813
奈@@ 813
mom 813
bey@@ 813
java 813
mpe@@ 813
dep@@ 813
personalized 812
落肩 812
4xl 812
cran@@ 812
supple@@ 812
oem 812
虽然 812
john@@ 812
尚@@ 812
史迪奇 812
联系人 812
displayed 812
一张 811
3a 811
ted@@ 811
富士 811
恩@@ 811
削 811
vid 811
合约 811
电气 811
acer 810
goo@@ 810
adow 810
changing 810
cheng 810
报价 810
ve-@@ 810
医用 810
汉堡 810
微笑 810
soft@@ 810
投影机 810
铲 810
pouch 809
increased 809
flat@@ 809
201 809
语@@ 809
腮红 809
咪 809
weeks 809
酷@@ 808
block@@ 808
仁@@ 808
wen@@ 808
梦想 808
气体 808
pel@@ 808
苦@@ 808
好用 808
清凉 808
vali@@ 808
冷却 808
stream 808
晚上 808
occu@@ 808
ب@@ 808
74@@ 807
dji 807
prime 807
浅 807
自行 807
严格 807
bacteri@@ 806
guar@@ 806
coach 806
stal@@ 806
假期 806
卫生@@ 806
avoid 806
战士 806
抽象 806
总部 806
sap 806
红外 805
tracking 805
感应@@ 805
遮肚 805
脑@@ 805
cool@@ 805
伤@@ 805
118 805
伯 805
镶 805
爾 805
从而 805
ornaments 804
-3 804
sag@@ 804
ome@@ 804
gy 804
噪@@ 804
每周 804
look@@ 804
垢 803
-proof 803
平价 803
实心 803
fone 803
宇 803
施工 803
另外 803
node 803
掏 802
香味 802
pregn@@ 802
刘海 802
巧@@ 802
ich@@ 802
reser@@ 802
简体 802
discus@@ 802
'll 802
influen@@ 801
sible 801
门票 801
stores 801
翔 801
garden@@ 801
courses 801
advantage 801
worth 801
metro 801
discover 801
找 801
directory 801
ь@@ 801
道路 800
ee 800
wei 800
tery 800
护颈 800
规模 800
检 800
克拉 799
仿@@ 799
仪表 799
纤@@ 799
汀 799
物理 799
dence 799
written 799
单人床 799
归 799
滨 799
哪里 799
午睡 798
封口 798
超仙 798
保守 798
taste 798
老式 798
授 798
🉑 798
职位 798
區 798
≤ 798
清洗机 797
名牌 797
lishing 797
swimsuit 797
夏威夷 797
匹配 797
hire 797
mining 797
牌@@ 797
现有 797
talk 797
resolution 797
蜥 797
но@@ 797
need@@ 796
oh 796
valent@@ 796
movie 796
tw 796
durable 796
攀@@ 796
双向 796
立式 796
bol@@ 796
梁 796
挪威 796
prof@@ 796
iso9001 796
饭菜 796
slot 795
山地车 795
poin@@ 795
耳塞 795
wt 795
yn@@ 795
entertainment 795
well@@ 795
xml 795
转移 795
having 795
恒温 794
ktv 794
孔雀 794
marks 794
role 794
杯架 794
changed 794
分子 794
中腰 793
焦@@ 793
坪 793
刺激 793
term 793
小朋友 793
酵 792
pin@@ 792
接收器 792
舞台 792
song 792
榻@@ 792
新手 792
good@@ 792
场所 792
响应 792
accept 792
無 792
overview 792
console 791
135 791
completed 791
此处 791
twitter 791
bam@@ 790
hollow 790
electr@@ 790
拉手 790
查找 790
mony 790
泡菜 790
exhi@@ 790
persons 790
й 790
闪光 789
登山@@ 789
break@@ 789
按@@ 789
晴@@ 789
防尘罩 789
弯@@ 789
poli@@ 789
府 789
往@@ 789
启用 789
汇率 789
nearby 789
trial 788
disc 788
stop@@ 788
工地 788
椰子 788
登机 788
复仇者 788
union 788
枝 788
pcb 788
temple 788
highly 788
第五 788
2-0@@ 788
lv 788
nba 788
获@@ 788
harb@@ 788
外贸 787
合物 787
400g 787
agu@@ 787
洁肤 787
北海道 787
疯@@ 787
places 787
饺 787
于@@ 787
目的地 787
coin@@ 787
photography 786
ys@@ 786
109 786
moving 786
折叠伞 786
3xl 786
位@@ 786
汽 786
倒 786
幼犬 786
蒟蒻 786
酵母 786
eb@@ 786
blue@@ 785
covers 785
打印机 785
洗手@@ 785
鬼@@ 785
棋盘 785
验@@ 785
住宅 785
从事 785
枚 784
挖耳 784
lon@@ 784
cycle 784
stance 784
羊肉 784
女袜 784
7p 784
jan 784
统计 784
240@@ 783
袖@@ 783
胖子 783
circle 783
vio@@ 783
猫粮 783
numbers 783
199 783
互 783
minibar 783
anti-spam 783
funds 783
kyo@@ 782
house@@ 782
entr@@ 782
inven@@ 782
dong 782
抵达 782
原木 781
piano 781
收缩 781
3rd 781
梳子 781
affe@@ 781
ut@@ 781
匠 781
绩 781
早上 781
xxx 781
mitted 781
collabor@@ 781
sleeping 780
mulation 780
奈 780
alter@@ 780
yy@@ 780
皇 780
复杂 780
門 780
质@@ 779
888 779
wrist@@ 779
seal 779
yers 779
advice 779
hai@@ 779
拜 779
沥水 779
知名 779
內 779
车门 778
brush@@ 778
艳 778
conce@@ 778
教程 778
emp@@ 778
sold 778
区@@ 778
即使 778
ат@@ 778
legen@@ 777
air2 777
发卡 777
十字 777
蒸气 777
弥月 777
160@@ 777
菊@@ 777
改进 777
值得 777
oversize 776
理解 776
○ 776
nes@@ 776
tup 776
reports 776
shoo@@ 775
共和国 775
抛弃 775
eth 775
渍 775
天天 775
doc@@ 775
旁@@ 775
yet 775
进一步 775
灵活 774
nutrition 774
wol@@ 774
character 774
posed 774
princess 774
manicure 774
false 774
injec@@ 774
每年 774
金额 774
assets 774
个性化 773
racing 773
disposable 773
蓬松 773
外观 773
split 773
ght@@ 773
vga 773
58@@ 773
优惠价 773
渠道 773
景色 773
seating 773
残障 773
低帮 772
棒棒糖 772
230 772
够 772
温控 772
situ@@ 772
人鱼 771
names 771
qing@@ 771
六角 771
victor@@ 771
邪 771
stro 771
橘@@ 771
文青 771
石油 771
contains 771
lands 771
燃 771
rs@@ 771
反馈 771
tool@@ 770
性爱 770
延迟 770
帮手 770
明治 770
ice@@ 770
副厂 770
浮雕 770
果干 770
急 770
三月 770
je 770
needed 770
星期一 770
hostels 770
单元 769
▲ 769
ham 769
份@@ 769
master@@ 769
邻@@ 769
locations 769
讨论 769
组@@ 768
vietnam 768
dad 768
milan 768
比亚 768
10t 768
之家 768
tric 767
silic@@ 767
脉@@ 767
f1 767
人字 767
hero@@ 767
眉@@ 767
基地 767
马拉@@ 767
都会 767
ility 767
遇 767
agree 767
carr@@ 766
personality 766
穆斯林 766
leader 766
凯 766
船袜 766
iss 766
发射器 766
拜@@ 766
dyson 765
finished 765
levels 765
53@@ 765
favorite 765
师@@ 765
languages 765
书桌 764
hero 764
玄@@ 764
老爹 763
nc@@ 763
防油 763
tr 763
耳夹 763
featuring 763
节点 763
156 762
leaf 762
箍 762
蒸 762
密封@@ 762
表壳 762
sett@@ 762
es-@@ 762
wu 762
小鱼 762
技巧 762
更高 762
compli@@ 762
遮阳@@ 761
板鞋 761
2k 761
捷@@ 761
blood 761
擦拭 761
integration 761
solve 761
借@@ 761
enable 761
sided 760
壁 760
包裹 760
recommend 760
alcohol 760
ult 760
大战 760
lie 760
女用 760
励 760
折价 760
í 760
dam 759
嵌 759
黛@@ 759
ghter 759
60-@@ 759
pick 759
ow@@ 759
imag@@ 759
宣传 759
cd@@ 759
inqu@@ 759
随着 759
经销商 758
笛 758
celebrity 758
marine 758
frame@@ 758
王子 758
争 758
桂 758
雷霆 758
à 758
pee 757
112 757
uniform 757
ints 757
class@@ 757
雪花 757
测器 757
mei@@ 757
sin 757
水蜜桃 757
小屋 757
逆@@ 757
魔鬼 757
eur@@ 757
滋 757
饲养 757
洋芋 757
莫 757
push 756
壁挂式 756
knee 756
新西兰 756
usage 756
12promax 756
浮潜 756
偶 756
aero@@ 756
特典 756
宣@@ 756
敷 756
广 756
sustain@@ 756
联邦 756
database 756
tables 755
锋@@ 755
吃饭 755
loud 755
孩 755
苏州 755
责 755
等待 755
suits 754
花瓶 754
腻 754
瘦身 754
占卜 754
abo@@ 754
波浪 754
98@@ 754
tang@@ 754
孕 754
狱 754
妇女 754
厚度 754
单独 754
thread 753
flash@@ 753
菱 753
lu 753
lli@@ 753
a2@@ 753
buffet 753
扇@@ 753
rup@@ 753
沛 753
cryp@@ 753
xp 753
下列 753
webex 753
insulation 752
clas@@ 752
继@@ 752
studi@@ 752
茄 752
fing@@ 752
弯头 752
鲑鱼 752
腕 752
种植 752
element 752
纯素 752
良品 752
并不 752
滑雪 751
脱毛 751
倒车 751
筷子 751
光纤 751
eds 751
aly@@ 751
manufac@@ 751
敬@@ 751
喇叭裤 751
赢 751
纹绣 750
艺术家 750
倾@@ 750
紧急 750
rf 750
rio 750
visi@@ 750
alization 750
某些 750
niche 749
foldable 749
5xl 749
老花 749
let@@ 749
horiz@@ 749
燕窝 749
赫拉 749
cities 749
sunshine 749
downtown 749
ples 749
dic 748
短筒 748
保温杯 748
a53 748
4d 748
jen@@ 748
律@@ 748
海岸 748
wait 748
纠@@ 748
极光 748
专门 748
serves 748
seconds 747
mounted 747
腕表 747
tide 747
定期 747
cylin@@ 747
兴@@ 747
moscow 747
sewing 746
电源线 746
羽 746
巡@@ 746
账@@ 746
shops 746
長 746
measurement 745
ea 745
狮@@ 745
气泡 745
地球 745
如意 745
secret 745
檀@@ 745
thin@@ 745
图标 745
m1 745
委@@ 745
nm 744
形状 744
chrome 744
kinds 744
疗@@ 744
pajamas 744
280 744
架@@ 744
悬挂 744
ultimate 744
覆 744
gs@@ 744
乘 744
洒 744
车标 743
运动衫 743
寒@@ 743
elite 743
属@@ 743
萝@@ 743
服务@@ 743
标题 743
expen@@ 743
opportunities 743
istio 743
評 743
风口 742
四代 742
mc 742
浪 742
莲蓬头 742
芯片 742
theatre 742
protec@@ 741
一体@@ 741
狐 741
circuit 741
汗@@ 741
瞬 741
ation@@ 741
entire 741
pacific 741
tu 741
ira 741
ond 741
预约 741
awar@@ 741
128g 740
packs 740
2m 740
清理 740
花花公子 740
cos@@ 740
米饼 740
bu 740
☑ 740
communications 740
填 740
hits 740
星期五 740
tent 739
bud@@ 739
wool 739
flav@@ 739
break 739
方块 739
郁 739
碟@@ 739
手游 739
rog 739
nific@@ 739
hit@@ 739
伟大 739
vak@@ 739
真的 739
prior 739
多年 739
同样 739
花束 738
styles 738
蝙@@ 738
汤匙 738
波兰 738
society 738
硬件 738
career 738
京@@ 738
熨斗 738
遇@@ 738
enjo@@ 738
dao 738
消费 738
د@@ 738
然而 738
boo 737
驱@@ 737
sie 737
plants 737
fab@@ 737
吸收 737
osa@@ 737
overseas 737
栗 737
coast 737
運 737
疫@@ 736
演出 736
寻@@ 736
invol@@ 736
lovely 735
摸@@ 735
ni 735
褶皱 735
specifications 735
蚊@@ 735
清晰 735
快干 735
好物 735
辛 735
depen@@ 735
venice 735
00pm 735
apartamen@@ 735
past 735
原始 734
ily 734
boot 734
bao@@ 734
学步 734
apar@@ 734
bath@@ 734
template 734
防水@@ 734
介@@ 734
涂 734
fec@@ 734
zza 734
'm 734
刻@@ 734
believe 734
造成 734
悉尼 734
路程 734
東 734
gab@@ 733
stretch 733
120g 733
6000 733
媒 733
showing 733
chapter 733
jade 732
tl@@ 732
dual-@@ 732
布鞋 732
fans 732
肖@@ 732
冻干 732
酪 732
浇@@ 732
1999 732
當 732
tices 732
积极 732
庭院 731
signed 731
喝@@ 731
医学 731
qing 731
116 731
刻字 731
zoo 731
signature 731
79@@ 731
竞争 731
ycon 731
hotline 731
ел@@ 731
扫 730
static 730
拇指 730
cue 730
256 730
gx@@ 730
音乐@@ 730
homes 730
ت@@ 730
drawing 729
黄铜 729
猫草 729
老虎 729
软毛 729
robo@@ 729
车牌 729
成熟 729
星期六 729
logi@@ 728
亚马逊 728
刊 728
plas@@ 728
除尘 728
供电 728
海带 728
editor 728
loads 728
.com. 728
matching 727
four-@@ 727
加利 727
婚纱 727
paul 727
驱动器 727
hu 727
煤@@ 727
里斯 727
雙 727
调用 727
sdk 727
guarante@@ 726
填充 726
壹 726
拳击 726
bet@@ 726
affili@@ 726
一旦 726
跨境 725
施 725
球衣 725
氯 725
戒@@ 725
ae@@ 725
响@@ 725
茶叶 725
beli@@ 725
一款 725
題 725
elements 724
外接 724
soled 724
氨基酸 724
2kg 724
db@@ 724
转运 724
track@@ 724
teen 724
毛球 724
r-@@ 724
石头 724
重点 724
bathtub 724
blanket 723
投影 723
福特 723
10s 723
stored 723
统@@ 723
pull 723
mu 723
650@@ 723
拨 723
tribu@@ 723
影片 723
chanel 722
路由器 722
pit@@ 722
designer 722
ul 722
recommen@@ 722
dering 722
颈椎 722
忍者 722
缩 722
century 722
divi@@ 722
array 722
筋@@ 722
文创 722
埃及 722
巨大 722
linen 721
1m 721
软皮 721
轮毂 721
selec@@ 721
citi@@ 721
豪@@ 721
辣妹 721
immediately 721
浏海 721
rome 721
措施 721
布拉@@ 721
10000 720
13-@@ 720
rex 720
手写 720
jour@@ 720
jas@@ 720
卡拉 720
every@@ 720
线控 720
寻 720
boxes 719
网球 719
一台 719
purchas@@ 719
阿尔 719
sition 719
cart 719
ache 719
manu@@ 719
zak@@ 719
晨 719
tations 719
lane 719
non-smoking 719
submit 719
scratch 718
122 718
抗皱 718
风水 718
explore 718
identi@@ 718
消费者 718
喝 718
coal 717
扬声器 717
章鱼 717
oxi@@ 717
ning@@ 717
acrylic 717
旅行袋 717
罩杯 717
冰雪 717
行程 717
ree 717
950 717
acces@@ 717
20ml 717
a20 717
直到 717
甘 717
感觉 717
throughout 717
及时 717
香奈儿 716
缩口 716
6mm 716
sons 716
光学 716
ri 716
lte 716
荧幕 716
香包 716
隙 716
然@@ 716
sitemap 716
servers 716
布艺 715
玫瑰@@ 715
comb 715
78@@ 715
oro 715
四色 715
小脚 715
整体 715
1-2 715
jun 715
逸 715
ave 715
衣橱 715
言@@ 715
secre@@ 715
suzhou 715
longer 715
iro 715
recent 715
usually 715
ме@@ 715
♛ 714
iphone8 714
gger 714
灯光 714
紫水晶 714
翘 714
打气 714
迈 714
draw 714
楼梯 714
转蛋 714
ceo 714
ж@@ 714
ature 713
附件 713
palm 713
护士 713
犀牛 713
汽油 713
california 713
washington 713
周期 713
jing@@ 712
teaching 712
珀 712
om@@ 712
token 712
旺@@ 712
拿@@ 712
车站 712
sheets 711
dimensional 711
consumption 711
乐福 711
deliver 711
motion 711
合身 711
发声 711
番 711
512@@ 711
raincoat 711
诚@@ 711
跨 711
制定 711
thro@@ 710
退 710
vable 710
mid@@ 710
otg 710
recip@@ 710
搅拌 710
symbo@@ 710
划痕 710
掉色 710
技@@ 709
toothbrush 709
漂亮 709
sity 709
aces 709
v1 709
cil 709
attrac@@ 709
麝香 709
gmt 709
compla@@ 709
fields 709
执黑 709
玉石 708
化妆@@ 708
拾@@ 708
riding 708
写真 708
探 708
暖暖 708
柴油 708
sphere 708
堆 708
唱 708
103 708
vec@@ 708
构建 708
scienti@@ 708
的话 708
小香 707
increas@@ 707
gogoro 707
dental 707
薯条 707
消除 707
坎肩 707
passed 707
觉@@ 707
餐盘 706
08@@ 706
fru@@ 706
pes 706
因素 706
境内 706
chip 706
bei 706
gp 706
ago@@ 706
首先 706
experts 706
执白 706
ре@@ 706
ы 706
桌布 705
kettle 705
米亚 705
总动员 705
齿轮 705
宿 705
s1 705
3,@@ 705
dos 705
比利时 705
potential 705
完善 705
8gb 704
配送 704
soup 704
tan 704
m365 704
appli@@ 704
62@@ 704
dot 704
condition 704
类@@ 704
无印 704
laboratory 704
退房 704
instru@@ 703
cosmetic 703
premi@@ 703
卡位 703
mart 703
12.@@ 703
任意 703
男人 703
捷克 703
水族箱 703
dele@@ 703
kia 703
领导 703
advantages 703
whitening 702
built-in 702
散装 702
nik@@ 702
5l 702
石墨 702
睡裙 702
瓶装 702
ini 702
launched 702
吹@@ 702
澎@@ 702
crm 702
署 702
策 702
regional 702
旅客 702
龙珠 701
alex@@ 701
小花 701
feeding 701
107 701
kk 701
schedule 701
卡娜 701
幼猫 701
◇ 701
武器 701
protoco@@ 701
applied 701
classi@@ 700
vehic@@ 700
blan@@ 700
35mm 700
回收 700
淡水 700
laun@@ 700
伟 700
vive 700
business@@ 700
喉 700
shuttle 700
视觉 700
符@@ 700
相信 700
ole 700
應 700
摄氏度 700
processes 700
shap@@ 699
gging 699
心形 699
sl 699
正装 699
网格 699
双效 699
拓@@ 699
bran@@ 699
agency 699
arc@@ 699
金门 699
茅 699
2014-@@ 699
建筑@@ 699
加床 699
institu@@ 699
parties 698
midd@@ 698
comb@@ 698
dable 698
tissue 698
gage 698
页@@ 698
团@@ 698
咖啡机 698
advis@@ 698
或是 698
guest@@ 698
remover 697
镜@@ 697
渐@@ 697
cott@@ 697
academy 697
tourism 697
宇@@ 697
盗 697
portu@@ 697
bowl 696
real-@@ 696
硬币 696
内饰 696
架子 696
拔@@ 696
war 696
mber@@ 696
雨靴 696
snoopy 696
浪@@ 696
用餐 696
wra@@ 695
tters 695
plush 695
muscle 695
后跟 695
临时 695
再次 695
桃花 695
碰@@ 695
泳池 695
dered 695
挖 695
莫斯科 695
統 695
戴尔 694
免洗 694
gan@@ 694
萃取 694
petro@@ 694
17-@@ 694
taining 694
可乐 694
疲@@ 694
墙壁 694
angeles 694
监 694
松鼠 694
乎 694
仍然 694
番号 694
成分 693
health@@ 693
水冷 693
禾 693
gur@@ 693
妳 693
networks 693
庙 693
咸@@ 693
穆@@ 693
ci 693
㊙ 693
粽 693
hope 693
今年 693
特性 693
配套 692
粉红色 692
摊 692
a8 692
insu@@ 692
arrang@@ 692
床边 692
近@@ 692
迪拜 692
董@@ 692
不到 692
受到 692
motor@@ 691
陆@@ 691
adju@@ 691
neo@@ 691
dash@@ 691
angel 691
破坏 691
father 691
ancient 691
再@@ 691
姐@@ 691
阁 691
profession@@ 691
吃@@ 691
athens 691
spy 690
月子 690
跟@@ 690
暴 690
门吸 690
1l 690
dit 690
大约 690
tained 690
董事@@ 690
sponge 689
悠@@ 689
accoun@@ 689
sharp 689
thon 689
talent 689
script 689
plc 689
約 689
不仅 689
camp 688
foot@@ 688
ood 688
funny 688
羊羔 688
篮@@ 688
nutri@@ 688
foo@@ 688
触屏 688
错@@ 688
夜间 688
纷 688
hin@@ 688
modules 688
feder@@ 688
rainfall 688
crossbody 687
12mm 687
中跟 687
grain 687
bars 687
花生@@ 687
af 687
pix@@ 687
牵绳 687
mad@@ 687
11.@@ 687
稿 687
dents 687
ipod 687
erp 687
凉爽 686
轮子 686
grid 686
捆@@ 686
塑身 686
operate 686
gal 686
rock@@ 686
钢弹 686
diffic@@ 686
11promax 686
苍@@ 686
替代 686
合适 686
持有 686
recruitment 686
8-0@@ 686
确@@ 686
展览会 686
進 686
station@@ 685
焊@@ 685
jack 685
belly 685
recording 685
芦 685
释放 685
一级 685
代币 685
zhong@@ 685
polic@@ 685
经济@@ 685
械 685
地道 685
指标 685
zzle 684
岩@@ 684
ingredi@@ 684
boun@@ 684
啦 684
tting 684
miami 684
欧盟 684
現 684
delete 684
bai 683
cont@@ 683
extrac@@ 683
齐 683
桶@@ 683
闪电 683
jes@@ 683
m32 683
捕@@ 683
插画 683
dr. 683
具备 683
厨 683
编码 683
brow@@ 683
ق@@ 683
bao 682
放大器 682
ached 682
食品@@ 682
新增 682
圈@@ 682
哆啦 682
自带 682
tec 682
东莞 682
horse 681
micha@@ 681
手术 681
收腹 681
音质 681
喜糖 681
hui 681
以来 681
肤色 681
工坊 681
便捷 681
inde@@ 681
胶条 681
洛杉矶 681
florence 681
如此 681
烹饪 680
方头 680
dam@@ 680
emergency 680
grass 680
cheng@@ 680
音波 680
類 680
guesthouse 680
heels 679
fie 679
zi 679
9d 679
生长 679
喂奶 679
觉 679
晚安 679
realme@@ 679
reno5 679
c. 679
何 679
rh@@ 678
挤@@ 678
106 678
position@@ 678
4th 678
shan@@ 678
2013-@@ 678
taken 678
柚 678
出版 678
耳麦 678
exclu@@ 678
他人 678
苏菲 678
会社 678
banking 678
velvet 677
单反 677
全能 677
brand@@ 677
妮@@ 677
en-@@ 677
毛毛 677
idea 677
椒@@ 677
ite@@ 677
bin 677
节目 677
圖 677
上述 677
consulting 677
魔方 676
三折 676
seller 676
clou@@ 676
改造 676
眼镜@@ 676
络 676
taipei 676
祖 676
梦@@ 676
ler@@ 676
符号 676
乌克兰 676
服务台 676
收取 676
buying 675
nano 675
zoom 675
窗帘 675
calendar 675
虎年 675
墙面 675
brake 675
phili@@ 675
relax 675
superior 675
归@@ 675
审查 675
metatrader 675
480 674
蓉 674
灯条 674
swiss 674
超长 674
王者 674
3-0@@ 674
苦 674
s20@@ 674
农业 674
結 674
defen@@ 673
educational 673
lb 673
18650 673
aquarium 673
顶部 673
md 673
wat@@ 673
级别 673
罩衫 673
舌@@ 673
a30 673
sj@@ 673
损失 673
抢@@ 672
96@@ 672
镶@@ 672
扁 672
dio 672
seven 672
--- 672
intelli@@ 672
线条 672
为止 672
foods 672
反应 672
itunes 672
么@@ 672
付费 672
终端 672
專 672
visits 672
麂皮 671
压表 671
tech@@ 671
australian 671
kari 671
agricul@@ 671
沃 671
e.@@ 671
statis@@ 671
sql 671
別 671
.net 671
sling 670
lars 670
琉@@ 670
texture 670
produce 670
ultr@@ 670
soli@@ 670
应急 670
lates 670
水龙头 670
bubble 670
铁盒 670
yed 670
氛围 670
prepar@@ 670
编程 670
fail@@ 670
托管 670
值@@ 670
plans 670
竹炭 669
beau@@ 669
ece 669
2022@@ 669
骰@@ 669
greater 669
爱尔@@ 669
屋顶 669
automa@@ 669
巴塞 669
tern 669
accur@@ 669
wrap 668
mature 668
2pcs 668
drum 668
sub-@@ 668
强效 668
pump@@ 668
landscape 668
sensi@@ 668
举@@ 668
vinc@@ 668
dj@@ 668
check-in 668
depending 668
especially 668
feeling 667
memor@@ 667
棉服 667
熊熊 667
hind 667
sha 667
note8 667
现实 667
invoice 667
蛇@@ 667
踩 667
龟@@ 667
娜@@ 667
teg@@ 667
尽 667
宣布 667
部署 667
丁字 666
绣花 666
potat@@ 666
红外线 666
wit@@ 666
moto@@ 666
牡@@ 666
栗@@ 666
锤 666
灯笼 666
契@@ 666
传奇 666
roy@@ 666
creation 666
维尔 666
週 666
一箱 665
botto@@ 665
ila 665
iphone7 665
方领 665
nh 665
缎面 665
bos@@ 665
pan 665
fic 665
低糖 665
備 665
invisible 664
窗户 664
smo 664
zhu@@ 664
usted 664
贴身 664
lesson 664
asset 664
cats 663
太阳镜 663
starbucks 663
ller 663
干爽 663
poke@@ 663
撑 663
nex@@ 663
程式 663
puzzle 662
rfid 662
sac@@ 662
iler 662
synthe@@ 662
乡 662
featu@@ 662
shu 662
x5@@ 662
美体 662
hands 661
matte 661
充满 661
扫地 661
baby@@ 661
扰 661
ciao 661
bangkok 661
ier 661
vu@@ 661
水疗 661
疑问 661
notebook 660
cleansing 660
theater 660
seeds 660
loaf@@ 660
spin@@ 660
即期 660
辐射 660
dev@@ 660
魔芋 660
天空 660
充分 660
划 660
迅@@ 660
.com@@ 660
duty 659
x6 659
凤 659
范@@ 659
magazine 659
薏@@ 659
❄ 659
隆@@ 659
zh 659
mpa 659
这家 659
投稿 659
ener@@ 658
ulzzang 658
amazfit 658
杂货 658
坑 658
请勿 658
non@@ 658
绝缘 658
存钱 658
simp@@ 658
thm 658
只能 658
凑 658
频率 658
organiz@@ 658
址 658
焊 657
夯 657
process@@ 657
260 657
ala@@ 657
碧 657
饮水机 657
狐狸 657
截 657
侦测 657
葡萄牙 657
sugges@@ 657
资质 657
instructions 657
赢得 657
ка@@ 657
definition 656
螺旋 656
办公桌 656
抬@@ 656
delicious 656
doors 656
component 656
ubere@@ 656
实践 656
离开 656
访客 656
ukra@@ 656
appointed 656
丸@@ 655
archi@@ 655
sav@@ 655
体重 655
慈@@ 655
甜甜圈 655
搜@@ 655
护照 655
龙头 655
证券 655
超亮 654
因@@ 654
ban 654
overall 654
热量 654
billion 654
眼部 654
aches 654
下来 654
navy 653
vice 653
笼@@ 653
keys 653
kan 653
名媛 653
cod 653
图形 653
鳕鱼 653
小铺 653
xper@@ 653
开发@@ 653
公开 653
practical 652
缓解 652
wd 652
musli@@ 652
拖地 652
chief 652
530 652
excel 652
浓度 652
classes 652
吻 652
s22 652
生茶 652
尾灯 652
闹钟 652
医药 652
麻油 652
全台 652
兔兔 652
吸引 652
allactionhost 652
characteris@@ 652
washable 651
tf 651
elderly 651
小新 651
lelaki 651
卡车 651
honey@@ 651
preser@@ 651
底裤 651
fried 651
8t 651
女友 651
捐@@ 651
佐@@ 651
城@@ 651
平日 651
泊@@ 651
reduction 650
viewing 650
衬@@ 650
蜡@@ 650
qr 650
cere@@ 650
次元 650
斗篷 650
380 650
预定 650
鲨 650
测速 649
140@@ 649
厨师 649
appear@@ 649
联网 649
zz 649
三种 649
慕@@ 649
gun@@ 649
门锁 649
红包 649
玄关 649
ride 649
packages 649
waste 649
班车 649
multi 648
seaf@@ 648
soph@@ 648
multicolor 648
各类 648
芦荟 648
ann@@ 648
睫 648
fair@@ 648
dm 648
况 648
呎 648
同性恋 648
参阅 648
displays 648
艺品 647
欣 647
holders 647
油箱 647
主管 647
即将 647
榄 647
individu@@ 647
atlan@@ 647
ever@@ 647
鲔鱼 647
sg@@ 647
pharmaceu@@ 647
阪 647
d.@@ 647
大厦 647
b2@@ 646
rmb 646
iner 646
ination 646
camer@@ 646
towels 646
prevention 646
万代 646
kf@@ 646
wife 646
微软 646
翰 646
资格 646
fb 645
album 645
organ@@ 645
handheld 645
elevator 645
duck 645
斯特@@ 645
香精 645
荧@@ 645
ii@@ 645
夜店 645
滋@@ 645
商城 645
时刻 645
最小 645
sels 645
anium 644
雅马哈 644
night@@ 644
佩 644
纶 644
额@@ 644
曜@@ 644
housing 644
晴雨 644
氟 644
detail 644
characters 644
abstr@@ 644
牧草 644
scan 644
朱@@ 644
伍 644
炫彩 644
dor 644
汉方 644
籍 644
requests 644
emer@@ 643
v-neck 643
doctor 643
招 643
42mm 643
地利 643
围裙 643
contemporary 643
穴 643
单品 643
处理器 643
arab@@ 643
禁 643
offices 643
edit 643
借 643
mainly 643
翻新 642
monster 642
frozen 642
尖@@ 642
hang@@ 642
cele@@ 642
cir@@ 642
金牌 642
requi@@ 642
滴胶 642
泰式 642
贝尔 642
nation@@ 642
upgra@@ 641
tropical 641
孕@@ 641
fly 641
seamless 641
cock@@ 641
沙拉 641
润滑@@ 641
喷剂 641
描@@ 641
high-tech 641
850 640
crown 640
美容@@ 640
anime 640
粘贴 640
哑铃 640
helmet 640
switzerland 640
实验 640
indone@@ 640
拉力 640
撒 640
dimensions 640
拭 640
车架 640
a2 640
多伦多 640
习 640
起泡 640
codes 640
接送 640
徒 640
cord 639
quet 639
布料 639
basket 639
volu@@ 639
addi@@ 639
握@@ 639
棍 639
佛罗伦@@ 639
百万 639
晕染 639
nes 639
incor@@ 639
dynamics 639
authority 639
reserv@@ 639
dell 638
dary 638
完@@ 638
长方形 638
temperament 638
playboy 638
ultra@@ 638
unic@@ 638
浅口 638
sna@@ 638
205 638
miff@@ 638
以太 638
hud 638
不倒翁 638
敏@@ 638
named 638
称@@ 638
deals 638
总裁 638
other@@ 638
分配 638
м 638
curren@@ 638
anti-drop 637
鸡蛋 637
头绳 637
grip 637
近视 637
操@@ 637
wardrobe 637
pleas@@ 637
打结 637
国外 637
pere@@ 637
cha 637
counter 637
东方 637
乡村 637
桂格 637
holding 637
dj 637
eing 637
sol 637
状况 637
gain 636
133 636
ysl 636
own@@ 636
球员 636
荔枝 636
printer 636
colla@@ 636
teeth 636
农场 636
珀@@ 636
bia 636
菱@@ 636
辣味 636
issued 636
举 636
melbourne 636
钥匙@@ 635
144 635
newborn 635
scooter 635
2ml 635
适应 635
预防 635
loop 635
defined 635
戏@@ 635
人类 635
tons 635
kok@@ 635
吸烟 635
regulations 635
utc 635
fying 634
upper 634
folder 634
230@@ 634
履@@ 634
smartphone 634
tured 634
解压 634
thickness 634
zs@@ 634
kai@@ 634
涡@@ 634
碑 634
73@@ 634
概念 634
mass 634
搭@@ 634
贺 634
jobs 634
≥ 634
投影仪 633
阿里@@ 633
连线 633
慕丝 633
伞@@ 633
跳跳 633
海贼 633
只@@ 633
适配 633
大气 633
摩洛哥 633
onia 633
生产@@ 633
consumer 633
优格 633
李 633
anti-collision 632
long-@@ 632
氨@@ 632
playing 632
usb-@@ 632
licen@@ 632
aer@@ 632
maintain 632
axis 632
lam 632
蓝莓 632
〕 632
忙 632
shrimp 631
几乎 631
costu@@ 631
莲花 631
诊断 631
anniversary 631
微信 631
搅@@ 631
hang 631
整合 631
paradi@@ 631
ket 631
乳酪 631
四脚 631
隧道 631
gia 631
í@@ 631
以前 631
vien@@ 631
领导@@ 631
boulevard 631
並 631
empty 630
提臀 630
耳坠 630
anced 630
抹布 630
cali@@ 630
filling 630
rav4 630
欧乐 630
护腰 630
右 630
课@@ 630
曼谷 630
actu@@ 630
显示屏 629
后盖 629
alle@@ 629
麦片 629
pg@@ 629
绅士 629
小腿 629
一份 629
搬@@ 629
饮食 629
怎样 629
butterfly 628
相片 628
bread 628
tration 628
tta 628
人像 628
乌 628
宽度 628
叮@@ 628
滤镜 628
06@@ 628
挺 628
journey 628
杯@@ 628
show@@ 628
meetings 628
丨 628
首席 628
alone 627
✽ 627
cci 627
yan 627
diving 627
漆@@ 627
咕 627
传动 627
mental 627
jiang@@ 627
lence 627
well-@@ 627
approximately 627
до@@ 627
祥 626
nut 626
时髦 626
22-@@ 626
lord 626
eling 626
mhz 626
脂肪 626
电影@@ 626
干贝 626
atmo@@ 626
迎 626
64g 626
保险柜 626
hit 626
contin@@ 626
判 626
investors 626
architec@@ 626
implementation 626
orts 626
ather 625
乃@@ 625
270 625
fresh@@ 625
毛毯 625
含量 625
nest 625
1500@@ 625
内存 625
门窗 625
ational 625
勇@@ 625
costa 625
4mm 624
oxford 624
钮 624
dresses 624
maternity 624
净白 624
丝带 624
reasons 624
bour@@ 624
sim@@ 624
茉莉 624
催@@ 624
教师 624
sit 624
specified 624
赖 624
mobi@@ 624
附加 624
溜@@ 624
has@@ 624
什@@ 624
instead 624
每次 624
seed 623
小脚裤 623
特大号 623
主动 623
1300 623
粉底液 623
善@@ 623
牛排 623
s3 623
唤@@ 623
matter 623
靠垫 623
zhang 623
useful 623
seen 623
owner 623
芙@@ 623
莫兰迪 623
chro@@ 623
ec 623
患者 623
refer 623
mole@@ 623
萌萌 623
俄@@ 623
prac@@ 623
1998 623
称为 623
на@@ 623
usb3 622
120ml 622
perman@@ 622
楼@@ 622
iv@@ 622
好评 622
曜 622
图书@@ 622
2020@@ 621
顺畅 621
95@@ 621
fence 621
gins 621
眉笔 621
暖器 621
allowed 621
ste 621
品种 621
.org 621
裝 621
现代化 621
herbal 620
kel@@ 620
rail 620
朋克 620
alize 620
rus@@ 620
fl 620
庄园 620
berlin 620
strate@@ 620
提前 620
开展 620
direction 619
卓@@ 619
conditioned 619
添加@@ 619
亮面 619
丢失 619
贷款 619
皮衣 619
壮@@ 619
路径 619
违@@ 619
aff@@ 619
高新 619
resource 619
條 619
始终 619
ald 618
皇冠 618
herit@@ 618
vitamin 618
factor 618
knit 618
high-speed 618
奔@@ 618
中大 618
enough 618
衩 618
mai 618
肉松 618
直营 618
钟@@ 618
2013-0@@ 618
destination 618
wired 617
家乐福 617
纽扣 617
窗@@ 617
凹@@ 617
运动服 617
都市 617
adventure 617
tsu@@ 617
aries 617
锦 617
利益 617
olymp@@ 616
labor 616
侧背 616
烘干机 616
比例 616
seasons 616
interactive 616
示灯 616
campus 616
宝适 616
gives 616
天平 616
怕 616
敞 616
depth 616
ibm 616
chairman 616
opportunity 616
大学生 615
oning 615
丙@@ 615
hb@@ 615
永 615
闪耀 615
岸 615
家人 615
marble 615
awa 615
桃园 615
涎 615
水上 615
南京 615
译 615
經 615
例子 615
к 615
雨量 615
hydr@@ 614
清洗@@ 614
pullover 614
yon 614
扩充 614
turtle 614
人生 614
秒杀 614
管理员 614
pts 614
拟@@ 614
清仓 613
003 613
jack@@ 613
ander 613
audi@@ 613
generator 613
诚信 613
280@@ 613
拓 613
存档 613
frank@@ 613
require 613
ppy 612
biscu@@ 612
惊喜 612
番茄 612
ths 612
环形 612
异味 612
bug 612
egy@@ 612
cg 612
研讨@@ 612
法规 612
catalog 612
transm@@ 611
硅@@ 611
甸 611
自动@@ 611
怪@@ 611
〔 611
鲍@@ 610
雀@@ 610
肖 609
侦@@ 609
拒@@ 609
適 609
話 609
bloo@@ 608
acade@@ 608
淘@@ 608
敌 608
cause 608
蜜桃 607
ses@@ 607
anim@@ 607
蔻 607
essen@@ 607
杜 607
稣 607
碍 607
碼 607
盟 606
仲@@ 606
概 606
挥 605
muse@@ 605
ication 605
mw 605
accommo@@ 605
ornam@@ 604
婴@@ 604
state@@ 604
池@@ 604
燕@@ 603
ism 603
س@@ 603
鹅@@ 602
迹 602
趴 602
亦 602
晨@@ 601
ories 601
凸 600
andro@@ 600
社@@ 600
伟@@ 600
霉 600
跃 600
fore 600
glu@@ 599
alog 599
候 599
覽 599
sage 598
mentary 598
寺 598
仍 598
duction 597
叉@@ 597
plac@@ 597
ority 597
碱 596
effec@@ 596
煮@@ 596
7-0@@ 596
☁ 595
stru@@ 595
供应@@ 595
光灯 595
avail@@ 595
將 595
ilities 595
ffe@@ 594
膀 594
障@@ 594
跨@@ 594
浦@@ 593
natur@@ 592
腿@@ 592
鹅 592
lev@@ 592
race 592
镊@@ 591
震@@ 591
宾@@ 591
偷@@ 590
末@@ 590
newsle@@ 590
smar@@ 589
糙@@ 589
豚 589
绸 589
即@@ 589
萝 589
瓣 589
阀@@ 589
昌 587
齿@@ 587
too@@ 587
柚@@ 587
征@@ 587
析 587
sle@@ 586
our-@@ 586
某 586
漫 585
蜗@@ 585
脉 585
ey 584
maj@@ 584
缠@@ 583
洁@@ 583
镁 583
罪 583
累@@ 583
麼 583
usb@@ 581
虹@@ 581
鞍 581
♠ 581
榨 581
rang@@ 581
➕ 581
◄ 581
闭 580
召@@ 580
谈@@ 580
囊 579
稳 579
end@@ 579
椎 579
ك@@ 579
炫@@ 578
锯 578
肛@@ 578
萌@@ 577
隐 577
excel@@ 577
过滤@@ 576
铂@@ 576
厢 576
govern@@ 576
念 576
独 574
tooth 574
个@@ 574
朵@@ 574
辉 574
eti@@ 574
際 574
栓 573
凭@@ 573
悉 573
certific@@ 573
① 572
stick@@ 572
削@@ 572
fts 571
撕 571
丼 571
依 570
ó 570
獎 570
authen@@ 569
挎@@ 569
绞@@ 569
勃@@ 569
scr@@ 569
agre@@ 569
幸 569
parame@@ 569
漠 568
阴 568
氛 568
婆 568
vide@@ 568
sunsh@@ 567
lor@@ 567
fes@@ 567
筛@@ 567
tains 566
三角@@ 566
bei@@ 565
橄@@ 565
困@@ 565
applic@@ 565
的@@ 565
访@@ 565
望@@ 564
乖 564
榈@@ 564
愉@@ 564
condition@@ 563
dant 563
孔@@ 563
呵@@ 563
遥 563
鉴 563
洗衣@@ 562
und 562
左 562
沐 562
岛@@ 562
凡@@ 562
亡 562
榨@@ 562
ó@@ 562
︎ 561
芥@@ 561
疏@@ 561
诉 561
佬 560
🤩 560
琴@@ 560
達 560
琳 559
孩@@ 559
cosme@@ 559
拾 559
君 559
嵌@@ 558
欢 558
滩@@ 558
哪@@ 558
5-0@@ 558
抛@@ 557
gir@@ 557
ape 557
偶@@ 557
谢@@ 557
翅 557
econo@@ 557
airpo@@ 556
func@@ 556
妆@@ 555
灾 555
臀 555
汁@@ 554
妻 554
oring 553
☃ 553
` 552
鲤 552
modu@@ 551
绪 551
渡@@ 550
廉@@ 550
赔 550
已@@ 550
镭@@ 549
americ@@ 549
渗@@ 549
较@@ 549
脖@@ 548
硅 548
啊 548
sian 548
ened 547
ort 547
fron@@ 547
ission 547
廉 546
妖@@ 546
肝 546
局@@ 546
频@@ 546
卜@@ 545
唯@@ 545
焰 545
destin@@ 544
次@@ 544
默 544
mess@@ 544
丑 544
忧 543
泊 543
瓷 543
扬 542
捞 542
衡 542
kore@@ 541
仑 541
proc@@ 541
卤 541
褪@@ 540
tooth@@ 540
scar@@ 540
派@@ 540
scien@@ 540
芯@@ 539
﹍ 539
阅 539
鑫 539
岚 538
午 538
袜@@ 537
streng@@ 537
匙 537
都@@ 537
霖 537
猴@@ 536
决 536
笋 536
營 536
缓 535
坡@@ 535
膝 535
elec@@ 535
apart@@ 535
著@@ 535
裹@@ 534
thers 534
tto@@ 534
я@@ 534
宋@@ 534
览会 534
fact 534
灣 534
❁ 533
缅@@ 532
缺 532
炫 532
缤@@ 532
employe@@ 532
🧡 532
某@@ 532
旨@@ 532
perfe@@ 531
陶 531
莲@@ 531
汪@@ 531
movi@@ 530
锡@@ 530
婕 530
environ@@ 529
smoking 529
尊 529
披 529
铅 529
纽 528
wee@@ 527
埔@@ 527
popu@@ 527
製 527
證 527
蛛 526
懒@@ 526
诗@@ 526
厨@@ 526
髪 525
醛 525
吴@@ 525
… 525
嘴@@ 524
烂 524
級 524
origin@@ 523
挤 523
鸿@@ 523
占 523
祈@@ 522
velo@@ 522
亏@@ 522
债@@ 522
液@@ 522
寒 522
赚@@ 522
規 522
恐@@ 521
段@@ 521
記 521
替 520
樱 520
髓 519
朝 519
❈ 519
避 519
frequ@@ 519
check-@@ 519
cus@@ 518
drin@@ 518
oid 518
oce@@ 518
ain 518
磺 518
１ 518
🆕 518
團 518
簿 517
沫 517
锥 517
块@@ 517
涤@@ 516
仓@@ 516
映 516
暂@@ 516
臥 516
仔@@ 515
use@@ 514
蒲@@ 514
劵 514
雇@@ 514
箭@@ 513
咬@@ 513
桧@@ 513
栈 513
彻@@ 513
躲@@ 513
响 512
逻@@ 512
＞ 512
手提@@ 511
舌 511
🈶 511
​ 511
√ 511
腊 510
夕 510
镇@@ 510
ign 510
哪 510
稀@@ 510
武 509
另@@ 509
昔 508
攻 507
妹@@ 507
熏 507
6-0@@ 507
購 507
凳@@ 506
cyc@@ 506
erc@@ 506
绑@@ 506
狼@@ 506
序@@ 506
逆 505
锂@@ 505
defin@@ 505
asu@@ 505
督@@ 505
竖 504
tain@@ 504
‧ 504
户@@ 504
ي 504
铬 503
遥控@@ 503
穗 503
荣@@ 503
從 503
aug@@ 502
秀@@ 502
肌@@ 502
渡 502
護 502
纫@@ 501
strict 501
叔 501
盏@@ 501
瓜@@ 501
regu@@ 501
哦 501
schedu@@ 501
凝 500
聊 500
泉@@ 500
授@@ 500
榴@@ 500
有权 500
沿 499
盆@@ 499
慕 499
項 499
vy 498
坎@@ 498
abled 498
§ 498
pointed 497
libr@@ 497
覆@@ 497
疫 497
殿 497
堤 497
烈@@ 496
涨 496
shen@@ 495
陷 495
enger 495
visit@@ 495
抱@@ 495
颁@@ 495
齐@@ 495
械@@ 495
肾@@ 495
ent@@ 495
闻@@ 495
hone@@ 495
組 495
阿拉@@ 494
辑@@ 494
猛@@ 493
硝@@ 493
姬 493
桥@@ 493
艺术@@ 493
雄@@ 493
柒 493
diam@@ 492
assemb@@ 492
葫@@ 492
党 492
焙 492
蚂@@ 492
着@@ 492
否 492
乒@@ 491
察@@ 491
丘 491
communic@@ 491
驻 491
妃 490
玺 490
hosp@@ 490
า 490
歡 490
jec@@ 489
盎@@ 489
slee@@ 489
恤@@ 489
nal 488
乙 488
叫@@ 488
伪 488
￥ 488
矽 487
nia 487
vely 487
х@@ 487
界@@ 486
ü 486
lent 485
亭 485
宏 485
填@@ 485
帅 484
劲@@ 484
乱 484
委 484
moi@@ 483
禅@@ 483
🈵 483
昂 483
✥ 483
隱 483
枸@@ 482
佐 482
喀@@ 482
判@@ 482
许@@ 482
虚@@ 482
羹 482
潭 482
fee@@ 481
gall@@ 481
戏 481
剥@@ 481
叠@@ 481
蔬 480
ital@@ 480
timate 480
sey 479
淑@@ 479
zoo@@ 479
咕@@ 479
杞 478
capac@@ 478
号@@ 478
摔 478
孙@@ 478
蓄@@ 478
戈@@ 478
行李@@ 477
咒 477
韵 477
light@@ 476
cus 476
鉴@@ 476
仅@@ 476
參 476
拳 475
gent 475
徐@@ 475
钱@@ 475
令@@ 475
洞@@ 475
璃 474
茵 474
赤@@ 474
楚 474
绷@@ 473
伺@@ 473
灶 473
ience 472
忘 472
硫@@ 472
smax 471
acti@@ 471
济@@ 471
稱 471
hua@@ 470
ail@@ 470
耀 470
琪 470
ww@@ 470
脏@@ 470
temper@@ 470
裙@@ 469
❖ 469
innov@@ 469
guesthou@@ 469
marke@@ 469
蓬 468
磷@@ 468
慢@@ 468
蝶 468
㎡ 468
累 467
返@@ 467
ppers 467
验 467
否@@ 467
羅 467
忆 466
progra@@ 466
ш@@ 466
炉@@ 465
找@@ 465
albu@@ 465
认 465
優 465
d. 464
ei 464
毕@@ 464
遊 464
邦@@ 463
燕 463
載 463
х 463
纺 462
卵 462
唯 462
榴 462
🥰 462
❦ 462
♚ 462
偿 462
馬 462
с 462
麋@@ 461
硕@@ 461
骷@@ 460
冠@@ 460
凌@@ 460
gar 460
踏@@ 459
洗发@@ 459
宵@@ 459
舶 459
your@@ 459
質 459
擇 459
soun@@ 458
谕 458
孟@@ 458
ported 458
氢 458
凸@@ 457
胆 457
乖@@ 457
requ@@ 457
維 457
铺@@ 456
ㄧ 456
炼@@ 456
promp@@ 456
moder@@ 456
阁@@ 456
杏 455
displa@@ 455
钛@@ 455
gon 455
凰 455
酿 455
豌@@ 454
椭@@ 454
奴 454
痛@@ 454
抑@@ 454
顽@@ 454
contain@@ 453
ux 453
stitu@@ 453
✓ 453
糬 453
婷 453
裆 452
replac@@ 452
bow@@ 452
▶ 452
纪 452
杠@@ 452
绕@@ 452
柑 452
卢 452
議 452
ame@@ 451
赏@@ 451
flexi@@ 451
燥 451
犹@@ 451
樂 451
糕@@ 450
睫@@ 450
christ@@ 450
✤ 450
毯@@ 450
系@@ 450
冊 450
villa@@ 449
pical 449
炖 449
蛳 449
泳 449
glas@@ 448
逊 448
dish@@ 448
𝐨 448
葱@@ 448
怎@@ 448
asonic 447
柑@@ 447
檐 447
熔 447
dai 447
reco@@ 447
喂@@ 446
蚤 446
︱ 446
钮@@ 446
旅行@@ 446
梨@@ 445
priv@@ 445
坤 445
瞬@@ 445
commo@@ 445
兼 445
ن 444
ient 444
heav@@ 443
盗@@ 443
gure 443
铅@@ 442
diffe@@ 442
徽 442
tals 442
ل 442
視 442
vent 441
钉@@ 441
诉@@ 441
髅 440
榜 440
控制@@ 440
茎 440
句 440
溅 439
△ 439
匀 439
廣 439
蘭 439
纫 438
锻@@ 438
ー 438
沿@@ 438
aker 437
坦 437
傅 437
［ 437
xed 436
兵@@ 436
mex@@ 436
漱 436
勤 436
賽 436
kn@@ 435
诊@@ 435
華 435
记录@@ 434
勾@@ 434
🤍 434
graphy 434
伪@@ 434
𝐞 434
✾ 434
把@@ 434
configur@@ 434
techn@@ 433
芳@@ 433
皙 433
勿 433
锐 433
赔@@ 433
具@@ 432
驶@@ 432
饯 432
itary 431
ney 431
▼ 431
溜 431
卧 431
expl@@ 431
申 431
保温@@ 430
蔽 430
峰@@ 430
9001 430
皱 429
nood@@ 429
蚀 429
忠@@ 429
臺 429
棋@@ 428
寨 428
浩@@ 428
site@@ 428
ially 427
枪@@ 426
扭 426
guang@@ 426
嗨 426
ckets 425
鹰@@ 425
magne@@ 424
aven@@ 424
役 423
烛@@ 423
弧@@ 423
矫@@ 423
辟@@ 423
亨@@ 423
聪@@ 423
久@@ 423
振 423
乃 423
伙 423
韦 423
侵@@ 423
株@@ 423
fam@@ 422
dimen@@ 422
轿@@ 421
扮 421
犯@@ 421
腺 421
exhibi@@ 421
☼ 420
bis@@ 420
▫ 420
题@@ 420
声波 420
𝐚 420
呈@@ 420
descri@@ 420
泽@@ 419
邻 419
粤 419
貨 419
煎@@ 418
怡@@ 418
返 418
携 417
尸 417
梵@@ 417
幕@@ 417
loo@@ 416
檬@@ 416
戈 416
案@@ 416
责@@ 416
dem@@ 416
辉@@ 415
忌 415
□ 415
hoste@@ 415
聖 415
拳@@ 414
lon 414
飨 414
策@@ 413
雀 413
你@@ 412
陪@@ 412
粽@@ 412
й@@ 412
technolog@@ 412
躺@@ 411
纾 411
镖 411
阵 411
柴@@ 411
總 411
pow@@ 410
荒@@ 410
突 410
mail.com 410
袄 409
锥@@ 409
耀@@ 408
柠@@ 408
朴 408
逼@@ 407
菠@@ 407
瑟 407
đ 407
實 407
aded 406
鹤 406
treat@@ 406
medic@@ 406
曾@@ 406
似@@ 406
弱 405
zip@@ 405
０ 405
扬@@ 404
indu@@ 404
astic 404
傲 404
ö 404
匈@@ 404
辦 404
financ@@ 404
knit@@ 403
醒@@ 403
妻@@ 403
cross@@ 402
捏 402
聞 402
喂 401
夸@@ 401
孵@@ 401
辰 401
播放@@ 401
株 401
研@@ 401
企@@ 401
粮@@ 400
訂 400
short-@@ 399
横 399
螂 399
筷 399
陈 399
畔 399
衰@@ 399
🧚 399
置@@ 399
诱@@ 399
革@@ 399
ç@@ 399
flor@@ 398
enter@@ 398
溯@@ 398
嫁@@ 398
蓄 398
贸 398
stat@@ 397
sne@@ 397
incre@@ 397
铆@@ 397
弧 397
rement 397
循 397
醫 397
帆@@ 396
刹 396
舔 396
adv@@ 396
ô 396
亲节 395
赠@@ 395
熬@@ 395
文版 395
町 395
飯 395
說 395
sleeved 394
tice 394
onable 394
bic@@ 394
泌@@ 394
筛 394
處 394
铸 393
祥@@ 393
tif@@ 393
院@@ 393
堵 393
播@@ 393
泄@@ 393
巨 392
🥳 392
榈 392
旨 392
漂 391
ween 391
蟹@@ 391
tified 391
滨@@ 391
栋 391
栽@@ 390
蝠@@ 390
afric@@ 390
褐@@ 390
骏 390
映@@ 390
途@@ 390
堵@@ 390
commen@@ 390
栅@@ 389
爵@@ 389
碱@@ 389
熔@@ 389
pn 389
皱@@ 388
刃 388
缇 388
番@@ 388
亿@@ 388
娱@@ 388
書 388
疼@@ 387
sep@@ 387
沉 387
ric 387
✖ 387
equip@@ 387
詳 387
園 387
董 386
秒@@ 386
smoo@@ 386
肺 386
爪@@ 386
牧 386
躺 385
胀 385
淀@@ 385
fashi@@ 385
蜘@@ 385
桐 385
彰@@ 385
鲣@@ 385
✵ 385
previ@@ 385
默@@ 385
化器 384
棒@@ 384
菁 384
脯 384
洪@@ 384
膨@@ 383
瑟@@ 383
迭 383
safe@@ 383
乱@@ 383
掘 383
認 383
腾@@ 382
沟 382
wes@@ 382
膳@@ 382
臣 382
拟 382
鐘 382
✧ 381
兑@@ 381
宠@@ 381
抵 381
創 381
梯@@ 380
兽@@ 380
栏@@ 380
混 380
瀑@@ 380
苗@@ 379
幽@@ 379
浩 379
指甲@@ 379
訴 379
require@@ 379
ц@@ 379
槟 378
偏 378
🉐 378
赌@@ 378
帖@@ 377
type@@ 377
ital 377
敬 377
ร 377
郵 377
proper@@ 377
衡@@ 376
绣@@ 376
筐 376
庞@@ 376
弱@@ 376
该@@ 376
أ@@ 376
colle@@ 375
诱 375
缆@@ 375
翅@@ 375
☺ 375
柠 374
ain@@ 374
逐@@ 373
celebr@@ 373
tro 373
怡 373
迦 372
您@@ 372
押 372
р 372
τ@@ 372
♨ 371
蝠 371
灿 371
ury 371
付@@ 371
☕ 371
蕊 371
良@@ 371
若@@ 371
故 371
涵@@ 371
藝 371
節 371
cky 370
陀 370
畅@@ 370
诸@@ 370
羔@@ 370
酿@@ 370
薯@@ 370
磷 370
納 370
akers 369
奋 368
stle 368
父 368
邀 368
vas 368
α 368
襟 367
潢 367
昂@@ 367
酶 367
tage 367
♣ 367
種 367
匹 366
簪 365
猎 365
temporary 365
卦 365
consu@@ 365
噗 365
抖 365
lear@@ 365
郑@@ 365
阔 364
柳 364
tradi@@ 364
柬@@ 364
村@@ 364
帆 364
丶 364
積 364
lover 363
蛮@@ 363
炭@@ 363
恶 363
萱 363
ffic@@ 363
舟 362
苔 362
camp@@ 362
辣椒@@ 362
氮 362
ق 362
淋@@ 361
拐@@ 361
孤@@ 361
岭 361
倍@@ 361
废 361
携@@ 361
旦 361
準 361
籤 361
矶@@ 360
das 360
却 360
渲@@ 359
兼@@ 359
葡 359
amic 358
勃 358
辆 358
ä 358
遍@@ 358
骚 357
refriger@@ 357
轴@@ 357
adverti@@ 357
face@@ 357
荳 357
卍 357
谐 357
categ@@ 357
試 357
柱@@ 356
睿 356
害@@ 356
惜@@ 356
审 356
ф@@ 356
缎 355
肿 355
郡 355
弃 355
م 355
雄 354
kne@@ 354
驼@@ 354
浸 354
侣 354
茸 354
傳 354
japan@@ 353
由@@ 353
蝇 353
踪@@ 352
谍 352
choo@@ 352
鸽@@ 352
翁 352
syste@@ 352
簷 352
world@@ 352
魅 352
涯 352
ques 351
rub@@ 351
锯@@ 351
镑 351
哲@@ 351
▸ 351
cros@@ 350
🦄 350
梵 350
估@@ 350
🧾 350
工程@@ 350
promax 350
筹@@ 350
ღ 350
make@@ 349
buck@@ 349
comfor@@ 349
抢 349
thre@@ 349
chair@@ 348
坠@@ 348
壤 348
皿 348
屈@@ 348
怀 348
顯 348
¶ 348
pear@@ 347
腱 347
疮 347
郁@@ 347
eld 347
淋 346
tem@@ 346
促 346
岗@@ 346
繁 346
老年 345
ference 345
乔 345
蔡@@ 345
藕@@ 345
撤@@ 345
式@@ 345
杂 345
厦@@ 345
廳 345
矩@@ 344
浸@@ 344
款@@ 344
宿@@ 344
摘@@ 344
熱 344
註 344
ح@@ 344
✴ 343
猛 343
酰@@ 343
水族@@ 343
у 343
霏 343
❍ 343
烷 343
潜 343
地产 343
ε@@ 343
酋@@ 343
č@@ 343
heal@@ 342
挥@@ 342
脊@@ 342
唷 342
α@@ 342
瑕 341
罩@@ 341
粒@@ 341
俗 341
澎 341
梭@@ 341
驗 341
編 341
蕃@@ 340
晴 340
instal@@ 340
馅 340
乓@@ 340
è 340
犬@@ 340
✯ 340
liqu@@ 340
喵@@ 340
№ 340
输 340
v4 340
宗 339
懒 339
勺@@ 339
刊@@ 339
讼 339
迁@@ 339
斋 338
紹 338
欺@@ 338
ank@@ 337
虑 337
sym@@ 337
咀@@ 337
搓 337
氯@@ 337
撕@@ 337
钠 337
癌@@ 337
─ 337
錄 337
– 336
悟@@ 336
✼ 336
糊 336
洽 336
饺@@ 336
𝕯 336
🦋 336
咒@@ 336
✺ 336
♫ 336
澳@@ 336
训@@ 335
泪 335
逃@@ 335
gle 335
鼎 335
弗 335
惯 335
伍@@ 334
ture@@ 333
胎@@ 333
佑 333
没@@ 333
暨 333
н 333
風 333
爸 332
犯 332
ج@@ 332
義 332
recor@@ 331
悠 331
bal 331
宅@@ 331
hydra@@ 331
❇ 331
黎 331
阶@@ 331
嗎 331
測 331
pou@@ 330
延 330
裂@@ 330
揭@@ 330
inspec@@ 330
contac@@ 330
猴 329
child@@ 329
魅@@ 329
♕ 329
篓 329
诞@@ 329
❉ 329
煌 329
帶 329
觀 329
钨 328
surance 328
嘟 328
醉 328
埔 328
銷 328
樣 328
菌@@ 327
visible 327
飘 327
卓 327
卵@@ 327
倩@@ 327
埃 327
驾 326
障 326
梗 326
操 326
祢 326
☛ 326
venture 326
募 326
phys@@ 326
duce 326
态@@ 326
換 326
預 326
決 326
調 326
✳ 325
μ@@ 325
techni@@ 324
像@@ 324
mber 324
蓓 324
詹@@ 324
壳@@ 324
添 324
น 324
師 324
兒 324
贤 323
锹 323
腥@@ 323
爷@@ 323
圭 323
萬 323
数据@@ 323
榛@@ 322
☽ 322
swim@@ 322
阪@@ 322
copy@@ 322
♈ 322
僵@@ 322
踝@@ 322
✜ 322
✣ 322
兆 321
误@@ 321
询@@ 321
融 320
課 320
鸣@@ 319
preven@@ 319
苹@@ 319
亨 319
肝@@ 319
⃣ 319
proto@@ 319
缆 318
险@@ 318
搓@@ 318
issu@@ 318
chap@@ 318
葚 317
肘 317
砲 317
娇@@ 317
大门 317
尝 317
氮@@ 317
讨 317
放大@@ 316
郊@@ 316
仆 316
龈 316
困 316
玫 315
㍿ 315
ஐ 315
☄ 315
渔 315
┇ 315
è@@ 315
☂ 315
虫@@ 315
槛 315
ô@@ 315
苑 315
❌ 315
visu@@ 315
intro@@ 315
疯 314
渣 314
冥@@ 314
灌 314
飙 314
娇 314
酋 314
享@@ 314
劃 314
枫 313
簡 313
環 313
瘾 312
糯@@ 312
桔 312
monit@@ 312
伙@@ 312
词@@ 312
函 312
頭 312
療 312
見 312
念@@ 311
藻@@ 311
钨@@ 311
芭 310
蹲 310
☞ 310
樟@@ 310
alian 310
險 310
･ 310
✎ 309
鸿 309
缀 309
躁 309
溢@@ 309
祭@@ 309
jav@@ 309
棠 309
vet 308
胚@@ 308
leng@@ 308
故@@ 308
❆ 308
recru@@ 308
influ@@ 307
jel@@ 307
伸@@ 307
芋 307
伽@@ 307
inve@@ 307
撒@@ 307
烛 307
貂 307
ت 307
auth@@ 306
芽@@ 306
tically 306
既 306
jewel@@ 305
neck@@ 305
衬 305
坛 305
restaur@@ 305
้ 305
盈@@ 305
泛@@ 304
轧@@ 304
芒 304
冈@@ 304
▌ 303
廓 303
疵 303
醋@@ 303
筆 303
wed@@ 302
搞 302
骗 302
滩 302
仰 302
sic 301
bac@@ 301
螃@@ 301
﹝ 301
♞ 301
錬 301
▥ 301
☈ 301
ᴇ 301
wid@@ 301
島 301
1080@@ 300
struction 300
appl@@ 300
蒡 300
济 300
﹞ 300
坞 300
赵@@ 300
音机 299
tern@@ 299
遍 299
撰@@ 299
慮 299
itor 298
帮@@ 298
lit 298
壮 298
ament 298
泼 298
裕@@ 298
轉 298
丛@@ 297
君@@ 297
苯 297
或@@ 297
薪@@ 297
捣@@ 296
哇 296
戳 296
▽ 296
彰 296
禮 296
矮@@ 295
晾@@ 295
mem@@ 295
阅@@ 295
cle 295
谢 295
skil@@ 295
恭@@ 295
tries 295
ю@@ 295
❃ 294
泫@@ 294
遛@@ 294
♙ 294
苜@@ 294
钙@@ 294
穴@@ 294
腌@@ 294
刑@@ 294
皂@@ 294
墓 294
酪@@ 294
赶@@ 294
癌 294
胁 294
剥 293
绷 293
栅 293
厕 293
exi@@ 293
裡 293
額 293
stin@@ 292
禧 292
俄 292
晋@@ 292
ω 292
杨 291
侍 291
soci@@ 291
逗@@ 291
铠@@ 291
乡@@ 291
２ 291
變 291
休闲@@ 290
唐 290
埠 290
◈ 290
魏 290
楞@@ 290
σ@@ 290
档@@ 290
剃 290
描 290
逛@@ 290
舍@@ 290
瘤 290
愛 290
帳 290
噌 289
onto 289
viet@@ 288
沈@@ 288
瑕@@ 288
陵 288
菓 288
э@@ 288
姨@@ 287
臀@@ 287
鞭 287
糯 287
囊@@ 287
励@@ 287
详 287
译@@ 287
患@@ 287
罐@@ 287
询 287
円 287
匹@@ 286
呼 286
剩@@ 286
ก 286
佣@@ 286
導 286
詢 286
甩@@ 285
甩 285
寝@@ 285
✘ 285
协 285
懂 285
锐@@ 284
惑 284
诞 284
扶@@ 284
坎 284
搜 284
協 284
ى 284
確 284
脂@@ 283
啾@@ 283
妈@@ 283
坑@@ 283
扒 283
kni@@ 283
啰 283
靓 283
youn@@ 282
肾 282
捉 282
残 282
♪ 282
员@@ 282
酬 282
atur@@ 282
② 281
delic@@ 281
谣 281
赌 281
therap@@ 281
识@@ 281
燚 281
驻@@ 281
樓 281
杉 280
纵@@ 280
🥇 280
冒 280
🧨 280
🧧 280
阵@@ 279
yel@@ 279
lea@@ 279
鸽 279
馥 279
吧@@ 279
elev@@ 279
mance 279
蝎@@ 279
昆 279
續 279
耕 278
塘 278
沒 278
镍 277
涮 277
弓@@ 277
浆@@ 277
終 277
清洁@@ 276
span@@ 276
☊ 276
哨 276
妇@@ 276
弄 276
毁 276
俯@@ 276
单人@@ 276
怖 275
腐 274
怒 274
succ@@ 274
颖 274
焕 274
禾@@ 274
诊 274
详@@ 274
ا 274
◘ 273
▤ 273
☜ 273
配器 273
稻@@ 273
🦐 273
荞@@ 273
♝ 273
☎ 273
▩ 273
罚 273
官@@ 273
sibility 273
lished 272
satur@@ 272
伐 272
禅 272
赖@@ 272
剂@@ 272
庄@@ 272
缚 272
候@@ 272
luxe 271
藕 271
综@@ 271
铭 271
却@@ 270
tell@@ 270
粧 270
屿 270
ø 270
乏 270
specific@@ 270
immedi@@ 269
匣 269
贾@@ 269
š@@ 269
韧 268
flas@@ 268
颂 268
笠 268
翠@@ 268
罕@@ 268
俊 268
â 268
ر 268
accor@@ 267
✚ 267
稍 267
梭 267
煲 267
拯@@ 267
perio@@ 267
氣 267
陷@@ 266
✒ 266
藓 266
⊕ 266
☫ 266
泄 266
indepen@@ 266
▧ 266
thir@@ 266
郭 266
❥ 266
♧ 266
宣 265
侏@@ 265
岔 265
adhe@@ 265
til 265
喱 265
钞@@ 265
烁 265
勇 265
deod@@ 264
屯 264
侬 264
holi@@ 264
视镜 264
菈 264
荫 264
妖 264
析@@ 264
制造@@ 264
圣诞@@ 263
③ 263
鲤@@ 263
偷 263
鹏 263
昭@@ 262
artic@@ 262
诈 262
症@@ 262
tub 261
终 261
ington 261
鞍@@ 260
哲 260
骆@@ 260
宰 260
井@@ 260
仕@@ 260
sugg@@ 260
瀏 260
谜 259
♘ 259
𝐭 259
✹ 259
疹 259
尝@@ 259
☾ 259
⚜ 259
州@@ 259
绮 259
梿 259
『 259
educ@@ 258
触 258
เ 258
讓 258
å@@ 258
擊 258
✉ 257
蝎 257
exerc@@ 257
吴 257
redi@@ 257
动器 256
热器 256
煎 256
adul@@ 256
灾@@ 256
檔 256
sno@@ 255
yor@@ 255
契 255
才@@ 255
☢ 254
胺@@ 254
大利 254
误 254
消费@@ 254
轧 253
寺@@ 253
妊@@ 253
计算@@ 253
愈 253
麟 253
尋 253
闲 252
鳖@@ 252
◑ 252
▬ 252
✱ 252
姻 252
矫 252
☍ 252
章@@ 252
肿@@ 252
悦@@ 252
翠 252
resul@@ 252
摄 251
蟑@@ 251
zhen 251
叔@@ 251
➡ 251
develop@@ 251
娅 251
虱@@ 250
茧 250
u.@@ 250
茸@@ 250
崇@@ 250
ส 250
獲 250
輸 250
ã@@ 250
買 250
ص@@ 250
cushi@@ 249
陀@@ 249
捆 249
溢 249
fault 249
い 249
』 249
洽@@ 249
論 249
幣 249
apri@@ 248
熏@@ 248
frien@@ 248
eting 248
鲸@@ 248
柯 248
忽@@ 248
援@@ 248
ρ@@ 248
ouse 248
₪ 247
藜@@ 247
镯 247
蕨 247
焗@@ 247
３ 247
depart@@ 247
✦ 247
恰 247
悟 247
室@@ 247
ط@@ 247
鸣 246
膜@@ 246
弥@@ 246
掉@@ 246
amer@@ 246
ⅱ 246
恰@@ 246
奧 246
ئ@@ 246
✐ 245
蚕 245
罗斯 245
✁ 245
拥@@ 245
歇@@ 245
▦ 245
旻 245
庭@@ 245
toile@@ 244
umb@@ 244
讨@@ 244
吮 244
instruc@@ 244
gover@@ 244
nam 243
桩 243
淘 243
赋 243
赤 243
unity 243
芦@@ 243
integra@@ 243
ش@@ 243
該 243
æ@@ 243
彪@@ 242
沁@@ 242
矽@@ 242
敷@@ 242
娠 242
蹭 242
馅@@ 242
細 242
給 242
moisturi@@ 241
minu@@ 241
悲@@ 240
聪 240
ternal 240
缎@@ 240
龄@@ 240
malay@@ 240
▣ 240
grea@@ 240
努@@ 240
例@@ 240
貌 240
蚕@@ 239
alia 239
gue@@ 239
楂 239
臣@@ 239
忍 239
φ 239
د 239
spam 239
¤ 238
❅ 238
✑ 238
拎 238
钳@@ 238
phar@@ 238
◐ 238
✡ 238
transpa@@ 238
☸ 238
燥@@ 238
辊 238
绩@@ 238
𝐮 238
 238
兜@@ 237
ities 237
崩@@ 237
ั 237
粪 237
旬 237
溫 237
強 237
財 237
抠 236
巫@@ 236
淇 236
竖@@ 235
❧ 235
忧@@ 235
缴 235
✕ 235
shoul@@ 234
苔@@ 234
摘 234
弥 234
狩@@ 233
ange 233
嘎 233
rence 233
暑 233
mechan@@ 233
咪@@ 233
熙 233
５ 233
✶ 232
棘@@ 232
烦@@ 232
嘟@@ 232
仰@@ 232
迁 232
paci@@ 231
茉 231
葛@@ 231
ecu@@ 231
沪 231
ᴀ 231
骄@@ 231
彼 231
抚 231
🧸 231
患 230
奢@@ 230
藜 230
kok 230
琵@@ 230
尘@@ 230
丈@@ 230
蹼 230
奉@@ 230
聲 230
脊 229
碁 229
tok@@ 229
栖@@ 229
辽@@ 229
茄@@ 229
霹@@ 229
◊ 229
渴@@ 229
谓 229
冶@@ 229
sever@@ 228
渐 228
促@@ 228
則 228
ž@@ 228
铲@@ 227
窕 227
虹 227
鸳@@ 227
metho@@ 227
ル 227
烦 227
匿@@ 227
簧 226
矩 226
旁 226
บ 226
ç 226
腔 225
菁@@ 225
吞@@ 225
◢ 225
∏ 225
豫 225
♗ 224
檀 224
佛罗@@ 224
♬ 224
﹉ 224
桧 224
dispos@@ 224
党@@ 224
構 224
铰@@ 223
缴@@ 223
盅 223
霓 223
prote@@ 223
復 223
`@@ 222
shir@@ 222
翰@@ 222
水机 222
疾 222
贷 222
ع 222
◕ 221
ñ@@ 221
厘@@ 221
麸@@ 221
崔 221
晓 221
个子 221
努 221
✩ 221
鲭@@ 221
崛@@ 221
鲷 221
恕 221
痔 221
睾@@ 221
regis@@ 221
fiel@@ 221
閱 221
羞@@ 220
蔷@@ 220
琶 220
辅 220
雳 220
but@@ 220
跌 220
繫 220
沏@@ 220
蝶@@ 219
icy 219
电动@@ 219
妙@@ 219
敢 219
tish 219
據 219
ú@@ 219
ø@@ 219
hou 218
哨@@ 218
饵@@ 218
✠ 218
cial 218
å 218
ه@@ 218
訪 218
❏ 217
祛 217
⛺ 217
捡 217
𝒆 217
✙ 217
✢ 217
糙 217
拚 217
曝@@ 217
敌@@ 217
臻 216
炊 216
turing 216
俏@@ 216
宙@@ 216
炮@@ 216
谧 216
ă 216
辞 216
adver@@ 216
щ@@ 216
件@@ 216
辈 215
翘@@ 215
迫 215
胆@@ 215
須 215
mical 214
舰 214
毕 214
橱 214
磕@@ 214
nis 214
gni@@ 214
闷 214
拷@@ 214
離 214
捏@@ 213
砍@@ 213
裕 213
浙 213
竭@@ 213
託 213
ques@@ 213
叙@@ 212
册@@ 212
shou@@ 212
麸 212
晕 212
芒@@ 212
樱@@ 212
祺 212
ι@@ 212
鞣 211
疤@@ 211
奉 211
唤 211
wle@@ 211
windo@@ 211
钞 211
ο@@ 211
畫 211
☇ 210
巾@@ 210
☬ 210
‘ 210
alcoho@@ 210
泵@@ 210
limi@@ 210
涤 210
yama@@ 210
◤ 210
俊@@ 210
勋 210
遭@@ 210
安全@@ 209
fragr@@ 209
巫 209
崭@@ 209
ด 209
铣@@ 209
л 209
剖 208
榜@@ 208
郭@@ 208
溪@@ 208
凭 208
職 208
替@@ 207
簧@@ 207
landsc@@ 207
胀@@ 207
盏 207
灸@@ 207
倡@@ 207
歷 207
奢 206
acro@@ 206
wire@@ 206
♤ 206
่ 206
倫 206
軟 206
既@@ 206
efficien@@ 206
̇@@ 206
rior 205
眸 205
叹 205
般@@ 205
赚 205
峡@@ 205
盥@@ 204
椹 204
ream 204
杆@@ 204
醯 204
笛@@ 204
ō 204
toi@@ 204
剩 204
硫 204
暹@@ 204
境@@ 204
μ 204
๑ 203
✇ 203
🥤 203
阱 203
whole@@ 203
蜓 203
琉 203
℗ 203
咖@@ 203
۩ 203
ス 203
榖 203
痞 203
蘸@@ 203
饴 203
薩 203
兩 203
範 203
般 202
巷 202
sue 202
扑 202
nolog@@ 202
歐 202
堪@@ 201
umbre@@ 201
苞 201
poten@@ 200
迅 200
螯 200
bouti@@ 200
澄 200
潘 200
泪@@ 200
sui@@ 200
釜@@ 200
ject 200
إ@@ 200
unities 200
佈 200
許 200
祷 199
栖 199
谊 199
吐 199
盲@@ 199
ห 199
彻 199
＿ 198
eleg@@ 198
窈@@ 198
独角@@ 198
镭 198
涵 198
歉 198
-c 198
۞ 198
ú 198
π@@ 198
λ@@ 198
昨@@ 198
amaz@@ 197
朋 197
瞳 197
κ@@ 197
ố 197
佣 197
隊 197
ↂ 196
斯科 196
ｔ 196
裹 196
啦@@ 196
𝒂 196
吾 196
∞ 196
❐ 196
還 196
خ@@ 196
檢 196
孚 195
严 195
坂 195
∈ 195
袭 195
屬 195
骼 194
擎@@ 194
cket 194
acket 194
姑@@ 194
珂 194
呆 194
牢@@ 194
删@@ 194
盤 194
責 194
逐 193
baske@@ 193
敲@@ 193
趴@@ 193
颊 193
岗 193
骗@@ 193
秉@@ 193
焱 192
暇 192
炖@@ 192
邪@@ 192
瞰 192
◀ 192
戳@@ 192
璨 192
旭 192
℡ 192
ema@@ 192
飨@@ 192
刑 192
ư 192
ế 192
衍@@ 192
況 192
cloth@@ 191
显示@@ 191
chur@@ 191
奋@@ 191
丛 191
gency 191
に 191
奎@@ 191
consul@@ 191
予@@ 191
楔@@ 190
篷@@ 190
collision 190
bub@@ 190
loun@@ 190
▨ 190
贯@@ 190
朴@@ 190
句@@ 190
ã 190
腦 190
递@@ 190
✷ 189
桨 189
vitam@@ 189
焱@@ 189
抚@@ 189
𝐬 189
腌 189
り 189
究@@ 189
献@@ 189
丙 189
﹊ 189
闲@@ 189
築 189
禽 188
炊@@ 188
苓 188
peop@@ 188
斐@@ 188
presi@@ 188
蛤@@ 188
ま 188
姿@@ 188
庫 188
拱@@ 187
✆ 187
硕 187
悍@@ 187
ạ 187
鳞 187
ย 187
ล 187
多数 187
洱@@ 186
跌@@ 186
昌@@ 186
鲸 186
诀 186
炎@@ 186
拎@@ 186
و 186
玻 186
钣@@ 186
傷 186
狐@@ 185
奴@@ 185
涌 185
ง 185
陽 185
領 185
稍@@ 185
❡ 184
闹 184
厄 184
垒 184
霍 184
稀 184
焙@@ 184
矮 184
凌 184
ん 184
薇@@ 184
疤 184
寡@@ 184
玻@@ 184
疑@@ 184
衛 184
记本 183
踏 183
曦 183
幅@@ 183
枇@@ 183
杷 183
璀@@ 183
噗@@ 183
坚 183
钼 183
罚@@ 183
import@@ 183
φ@@ 183
態 183
痞@@ 182
靓@@ 182
敲 182
棱@@ 182
☌ 182
☒ 182
✲ 182
硼 182
♟ 182
✟ 182
绍@@ 182
🥭 182
略@@ 182
ν@@ 182
纲 181
饲@@ 181
馔 181
phon@@ 181
葵@@ 181
姊@@ 181
忆@@ 181
啥 181
敦@@ 181
岁@@ 181
席@@ 181
ţ@@ 181
栽 180
octo@@ 180
尺@@ 180
g. 180
dynam@@ 180
囍 180
煤 180
赋@@ 180
☏ 179
鞘 179
牛仔@@ 179
✗ 179
窥@@ 179
ン 179
凑@@ 179
鬃 179
cost@@ 179
轨@@ 179
慎 179
ş@@ 179
刹@@ 178
breath@@ 178
昕 178
鸯 178
垒@@ 178
ί@@ 178
危 178
辫 177
蜻@@ 177
印机 177
旱@@ 177
帧 177
弊 177
█ 177
停车@@ 177
贫@@ 177
紅 177
槌 176
枝@@ 176
褓 176
棘 176
祭 176
筑 176
寶 176
蹤 176
⇒ 176
绸@@ 175
珪 175
薪 175
贞 175
┅ 175
胡刀 175
丞 175
𝒖 175
ㄚ 175
瑜@@ 175
ᴏ 175
驶 175
◙ 175
𝐍 175
☋ 175
ﺴ 175
🤗 175
卐 175
闸 175
率@@ 174
匠@@ 174
乞@@ 174
巅@@ 174
衷 174
訓 174
禄 173
嘿 173
腊@@ 173
dney 173
摊@@ 173
驼 173
艳@@ 173
馆@@ 173
茂 173
祷@@ 173
، 173
讀 173
歲 173
-fi 172
靶 172
onics 172
钧 172
啵 172
眩@@ 172
凿 172
苯@@ 172
煲@@ 172
押@@ 172
罪@@ 172
銀@@ 172
ο 172
贪@@ 171
湘 171
machin@@ 171
菓@@ 171
奏@@ 171
泛 171
ñ 171
濟 171
奔 170
蹦 170
灶@@ 170
fres@@ 170
ange@@ 170
洒@@ 170
彭@@ 170
释@@ 170
撩 170
蔡 170
晓@@ 170
竟 170
´ 170
壓 170
commun@@ 170
htt@@ 170
inet 169
吓 169
沥@@ 169
〓 169
蹄 169
お 169
princ@@ 169
桔@@ 169
砖@@ 169
な 169
д 169
監 169
ㄟ 168
❒ 168
斧 168
琦 168
愤@@ 168
amoun@@ 168
🥕 168
欲@@ 168
屌 168
ɴ 168
dicated 168
mage 168
↘ 168
弟@@ 168
𝒐 168
逸@@ 168
ê 168
ต 168
benef@@ 168
眾 168
弦@@ 167
wel 167
俱 167
耍 167
抄@@ 167
夺 167
洪 167
坏@@ 167
ม 167
鲷@@ 167
戲 167
rail@@ 167
産 167
聘 167
birth@@ 166
埋 166
耦@@ 166
鼎@@ 166
cis@@ 166
椰 166
４ 166
霓@@ 165
✻ 165
抄 165
伏@@ 165
肺@@ 165
究 165
屋@@ 165
執 165
辖@@ 165
狙@@ 164
ety 164
鲈@@ 164
葛 164
deg@@ 164
恐 164
府@@ 164
双人@@ 164
艰@@ 164
羡 163
涩 163
炬 163
竣 163
seam@@ 163
瀚 163
อ 163
蚓 163
刘 163
習 163
³ 163
盔 162
礁 162
industri@@ 162
嬷 162
惊 162
ghai 162
粟 161
锚 161
孅 161
霉@@ 161
∋ 161
贯 161
ans@@ 161
気 161
tton 161
➠ 161
tempor@@ 161
annu@@ 161
疏 160
裔 160
绽@@ 160
ition 160
彤 160
戚@@ 160
蠕@@ 160
w.@@ 160
胱 159
枣@@ 159
簇 159
旷@@ 159
惧 159
继 159
∣ 159
彬 159
呀 159
幫 159
辖 159
識 159
绊 158
笑@@ 158
沈 158
俏 158
米花 158
状@@ 158
踪 158
媚 158
６ 158
敢@@ 158
鏡 158
hone 157
臂@@ 157
纬 157
荡 157
丐 157
缠 157
し 157
玟 157
〉 157
吐@@ 157
烹@@ 157
贾 157
燈 157
頻 157
廠 157
秦@@ 156
sham@@ 156
儒 156
仇 156
玖 156
º 156
镁@@ 156
馋 156
侨 156
妥 156
淀 156
滿 156
璞 155
coffe@@ 155
妥@@ 155
忻 155
austr@@ 155
＠ 155
ら 155
甄 155
toyo@@ 155
塩 155
action@@ 155
猿@@ 155
榉@@ 155
溃 155
弟 155
呈 155
谨@@ 155
毗@@ 155
ς 155
ю 155
蓿@@ 154
opy 154
芋@@ 154
☪ 154
𝐢 154
胗 154
饲 154
了@@ 154
翔@@ 154
ữ 154
琳@@ 154
又@@ 154
迹@@ 154
暑@@ 154
圍 154
農 154
天竺@@ 153
撑@@ 153
圃 153
坝 153
double@@ 153
娘@@ 153
棍@@ 153
夺@@ 153
镍@@ 153
赢@@ 153
厌@@ 153
＜ 153
moistu@@ 152
rench 152
carto@@ 152
絮 152
梁@@ 152
悔 152
弘 152
帛@@ 152
赶 152
獨 152
橱@@ 151
腕@@ 151
recep@@ 151
霾 151
呆@@ 151
铭@@ 151
ð 151
兹@@ 151
⊙ 151
啤@@ 151
証 151
龍 151
乓 150
酚 150
茉@@ 150
ycle 150
ｍ 150
agram 150
韧@@ 150
蔬@@ 150
ệ 150
睛 150
綠 150
魁@@ 150
stain@@ 149
楠 149
螳@@ 149
β 149
褥@@ 149
猿 149
猜 149
贡 149
岸@@ 149
発 149
槟@@ 148
鑫@@ 148
谱@@ 148
罂@@ 148
汰 148
ớ 148
datab@@ 148
韓 148
篷 147
🥐 147
level@@ 147
殖@@ 147
𝐥 147
logis@@ 147
墘 147
婆@@ 147
膝@@ 147
𝒎 147
吞 147
泌 147
矢@@ 147
谋 147
− 147
菩@@ 146
刨@@ 146
胭@@ 146
ge-@@ 146
亩 146
丑@@ 146
代尔 146
毁@@ 146
顾@@ 146
殊@@ 146
諾 146
览@@ 146
藥 146
兌 146
腋@@ 145
荚 145
labor@@ 145
哇@@ 145
廷@@ 145
崩 145
惯@@ 145
狸 145
柿@@ 145
筒@@ 145
辫@@ 145
晖 145
岳 145
ß@@ 145
闷@@ 144
秆 144
泼@@ 144
歧@@ 144
癣 144
动机 144
ｎ 144
牵@@ 144
ë 144
锣@@ 144
辩@@ 144
聘@@ 144
â@@ 144
滥@@ 144
宪@@ 143
搏 143
蔗@@ 143
懿 143
蛎 143
湘@@ 143
孝@@ 143
珐 143
arium 143
闸@@ 143
学者 143
稅 143
鋼 143
忱 143
営 143
缔@@ 143
ア 142
防尘@@ 142
氨 142
赐 142
宵 142
芷 142
呢@@ 142
粕 142
挪 142
勤@@ 142
楦 142
宋 142
昊 142
牲 142
commer@@ 142
莅@@ 142
係 142
eded 142
缸@@ 141
鳍 141
襁@@ 141
丘@@ 141
鸥 141
啪 141
穆 141
按摩@@ 141
螨@@ 141
萃@@ 141
砧@@ 141
窑 141
叙 141
萊 141
芹 140
镯@@ 140
腱@@ 140
inclu@@ 140
蓿 140
熬 140
蟑 140
𝒏 140
⌚ 140
茜 140
瓮 140
靖 140
╭ 140
ʀ 140
札@@ 140
隨 140
狀 140
兄 139
bere@@ 139
揪 139
ク 139
劣 139
ε 139
紙 139
贼 138
聊@@ 138
แ 138
钾 138
擅@@ 138
鐵 138
据@@ 138
叻 138
嗅@@ 137
悲 137
捐 137
撞@@ 137
喉@@ 137
惩@@ 137
驯@@ 137
遥@@ 137
ะ 137
旭@@ 137
津@@ 137
層 137
怎 137
迭@@ 137
窝@@ 136
麒@@ 136
蝌@@ 136
蚪 136
鱿 136
兑 136
设计@@ 136
迫@@ 136
through@@ 136
黃 136
顧 136
貝 136
荆@@ 135
mosqu@@ 135
瑜 135
word@@ 135
洲@@ 135
慧@@ 135
胞@@ 135
镰@@ 135
接收@@ 135
殿@@ 135
他@@ 135
迄@@ 135
desk@@ 134
项@@ 134
gala@@ 134
绫 134
瑯 134
羞 134
兆@@ 134
幌 134
ı@@ 134
ā@@ 134
興 134
poo 133
谨 133
荳@@ 133
苣 133
烯@@ 133
栀@@ 133
ʜ 133
梠 133
⚪ 133
ㄇ 133
┋ 133
ｃ 133
✸ 133
🦘 133
冒@@ 133
杓 133
８ 133
募@@ 133
売 133
豐 133
戰 133
铢 132
愈@@ 132
茴@@ 132
耻 132
掘@@ 132
リ 132
嘎@@ 132
聆@@ 132
匯 132
勘@@ 131
貂@@ 131
射器 131
喷雾@@ 131
堡@@ 131
扰@@ 131
铂 131
邀@@ 131
族@@ 131
帐@@ 131
と 131
ả 131
竣@@ 131
ذ@@ 131
nec@@ 130
ɪ 130
巡 130
bex 130
尸@@ 130
己 130
ờ 130
茵@@ 130
炙 130
響 130
娩 130
頓 130
沐@@ 129
彦 129
湛 129
曙@@ 129
斌 129
盾@@ 129
姨 129
赴 129
咀 129
╮ 129
bene@@ 129
輪 129
賞 129
wledge 129
ب 129
抹@@ 128
嗑 128
媲@@ 128
挽 128
鲫@@ 128
跟鞋 128
柿 128
贤@@ 128
慧 128
╰ 128
纵 128
紀 128
绗@@ 127
饼@@ 127
feed@@ 127
蹄@@ 127
缘@@ 127
necess@@ 127
毅 127
ิ 127
诈@@ 127
挝 127
🥝 126
butter@@ 126
墬 126
𝒓 126
🟠 126
鑚 126
❰ 126
❱ 126
🤎 126
窄@@ 126
🧶 126
corpor@@ 126
窃 126
胃@@ 126
寮 126
蔚@@ 126
価 126
較 126
loca@@ 126
葡@@ 126
莹 125
children@@ 125
锆 125
ocu@@ 125
逻 125
耽@@ 125
coul@@ 125
喊@@ 125
鸢@@ 125
刨 125
姓 125
瘫@@ 125
痪 125
豚@@ 125
＂ 125
織 125
藍 125
alco@@ 124
踩@@ 124
辱 124
暮 124
邓@@ 124
颠 124
稻 124
绞 124
accord@@ 124
讶 124
澄@@ 124
势@@ 124
④ 124
榮 124
飛 124
痤@@ 123
锉 123
馏 123
淬@@ 123
恨 123
粤@@ 123
尤 123
涅 123
偿@@ 123
forec@@ 123
弃@@ 123
ı 123
謝 123
匡@@ 122
迟 122
侯@@ 122
沛@@ 122
褐 122
numb@@ 122
☝ 122
锤@@ 122
畜 122
掰 122
贩@@ 122
胚 122
湾@@ 122
ì 122
์ 122
忠 122
估 122
寫 122
δ@@ 122
ز@@ 122
transpor@@ 122
陕@@ 122
colli@@ 121
灿@@ 121
绽 121
捞@@ 121
桐@@ 121
呐 121
✰ 121
秽 121
哥大 121
拦@@ 121
虚 121
侵 121
俪 121
浣@@ 121
毫 121
夥 121
膠 121
賓 121
艘 121
蘇 121
transp@@ 120
aul 120
vince 120
two@@ 120
哭 120
啪@@ 120
忍@@ 120
恼 120
庙@@ 120
猩 120
鹏@@ 120
secur@@ 120
イ 120
镓 120
儲 120
講 120
з 120
唾@@ 119
扳@@ 119
貍 119
肘@@ 119
europe@@ 119
健身@@ 119
𝑜 119
珊@@ 119
汐 119
誓 119
疼 119
溉 119
噜@@ 119
🪴 119
耿@@ 119
┃ 119
朱 119
噪 119
🀄 119
擕 119
➿ 119
ắ 119
萧@@ 119
♻ 119
🦉 119
朔 119
magaz@@ 119
掩@@ 119
邊 119
損 119
練 119
beauti@@ 118
蕉 118
荡@@ 118
琼@@ 118
榻 118
侈@@ 118
囤@@ 118
ี 118
捧@@ 118
蟀 118
╯ 118
狄 118
輯 118
姻@@ 117
ished 117
涕 117
仲 117
茅@@ 117
dece@@ 117
ｉ 117
twit@@ 117
沼@@ 117
擀 117
藿@@ 117
階 117
晰@@ 116
mption 116
sional 116
揉@@ 116
澈 116
域@@ 116
丫 116
粪@@ 116
澡@@ 116
７ 116
啫@@ 116
楷@@ 116
呦 116
缪@@ 116
峡 116
滕 116
玲 116
彭 116
顷 116
駅 116
圧 116
盒@@ 115
↓ 115
ａ 115
蛹 115
伽 115
催 115
轰@@ 115
９ 115
宴@@ 115
preci@@ 114
捡@@ 114
compati@@ 114
挣@@ 114
叮 114
肢 114
晕@@ 114
绅 114
腩 114
诸 114
ộ 114
笋@@ 114
鳖 114
涉 114
澜 114
舉 114
瑪 114
閣 114
楚@@ 113
秸@@ 113
换器 113
簪@@ 113
傻@@ 113
糟@@ 113
哟 113
wou@@ 113
祂 113
筏@@ 113
荐 113
ว 113
庵 113
骰 113
ｘ 113
涨@@ 113
耕@@ 113
聽 113
負 113
溯 113
熨 112
玲@@ 112
崁 112
妡 112
骏@@ 112
ф 112
ovo 112
☔ 112
氟@@ 112
favor@@ 112
⧳ 112
condi@@ 112
🅾 112
║ 112
觅 112
🤤 112
𝒚 112
桖 112
🦰 112
嗯 112
ʙ 112
喊 112
🤡 112
阐@@ 112
า@@ 112
投资@@ 112
軍 112
養 112
喇 111
歇 111
舵 111
傲@@ 111
卑 111
厄@@ 111
蟋@@ 111
垦@@ 111
罕 111
币@@ 111
覺 111
靈 111
輕 111
deta@@ 110
谭 110
磅@@ 110
矶 110
桦 110
蒲 110
徐 110
吕 110
econ@@ 110
歪@@ 110
粱 110
逢 110
を 110
stors 110
success@@ 110
festiv@@ 110
ý 110
賣 110
審 110
扯 109
痰 109
gaz@@ 109
侠@@ 109
饿 109
哄 109
蜊 109
ror 109
茗 109
ป 109
幸@@ 109
璐 109
ơ 109
奎 109
涛 109
喀 109
徒@@ 109
擬 109
à@@ 109
雲 109
ć 109
親 109
麗 109
＄ 108
谋@@ 108
呛 108
吕@@ 108
驳 108
釜 108
陌@@ 108
ض@@ 108
戛@@ 108
跆@@ 107
畏 107
侯 107
烙@@ 107
哺 107
厌 107
债 107
恬 107
倾 107
弘@@ 107
惜 107
筏 107
窖 107
啟 107
ê@@ 107
減 107
characteri@@ 107
墅 107
鍵 107
chick@@ 106
揭 106
衣裙 106
莺@@ 106
褥 106
锉@@ 106
闯@@ 106
挠 106
礁@@ 106
ầ 106
邑 106
愚@@ 106
墓@@ 106
忙@@ 106
菠 106
寬 106
upda@@ 106
🥚 105
衰 105
拣 105
🆓 105
拧 105
祐 105
瞄@@ 105
垣 105
杵 105
榭 105
𝐅 105
𝐜 105
闵 105
需@@ 105
◥ 105
ι 105
度假@@ 105
warran@@ 104
抑 104
侈 104
猩@@ 104
さ 104
亦@@ 104
芸 104
批发@@ 104
沢 104
third-@@ 103
堪 103
oly@@ 103
闹@@ 103
帅@@ 103
甫 103
峻@@ 103
び 103
颖@@ 103
厝 103
逾 103
翼@@ 102
褂 102
蚝 102
鲈 102
麦克@@ 102
eter 102
飲 102
臘 102
ě@@ 102
办公@@ 102
採 102
rabb@@ 101
腈 101
comprehen@@ 101
悍 101
撬 101
尹 101
茂@@ 101
笃@@ 101
糟 101
峻 101
潍@@ 101
隼 101
俯 101
禹@@ 101
萄 101
猜@@ 101
晟 101
幢 101
帘@@ 100
札 100
蛊 100
沁 100
み 100
烊 100
ラ 100
宛 100
カ 100
瞄 100
鹦 100
肃 100
挽@@ 100
侦 100
輔 100
盂 99
帜 99
く 99
厉@@ 99
叽 99
茨@@ 99
ˋ 99
る 99
ค 99
扶 99
繼 99
劑 99
曹@@ 98
✮ 98
𝓁 98
呷 98
涡 98
抖@@ 98
🥑 98
ㄅ 98
scoo@@ 98
♔ 98
掰@@ 98
唰 98
ｐ 98
寤 98
🥬 98
𝕖 98
睿@@ 98
怨 98
µ@@ 98
性化 98
遠 98
η@@ 98
擁 98
疣 97
幂 97
凹 97
钵 97
晋 97
峇 97
锻 97
鲍 97
雁 97
葳 97
添@@ 97
伎 97
21s 97
媒@@ 97
穷 97
酰 97
苹 97
甚 97
極 97
渝 96
缶 96
筑@@ 96
虐@@ 96
钦@@ 96
孤 96
挺@@ 96
辨 96
骚@@ 96
＝ 96
及@@ 96
鄂 96
藉 96
勝 96
ÿ 96
逅 95
吟 95
颂@@ 95
琅 95
绮@@ 95
巴克 95
孙 95
吮@@ 95
橡 95
臨 95
貸 95
seas 95
圓 95
箴@@ 94
珑 94
裱 94
痕@@ 94
俐 94
寓@@ 94
醉@@ 94
genu@@ 94
¦ 94
鬣@@ 94
函@@ 94
ν 94
括 94
馄@@ 94
饨 94
劈 94
游戏@@ 94
遭 94
µ 94
賬 94
簽 94
盧 94
envi@@ 94
š 94
sung 93
盔@@ 93
枢 93
逝 93
鹤@@ 93
鳞@@ 93
孜@@ 93
抠@@ 93
シ 93
剁@@ 93
瑰 93
墩 93
膏@@ 93
ｕ 93
陪 93
蚯@@ 93
乾@@ 93
胰@@ 93
渊 92
撩@@ 92
咙 92
materi@@ 92
综 92
姬@@ 92
う 92
ấ 92
斐 92
趟 92
マ 92
遣 92
隶@@ 92
秩@@ 92
虛 92
僅 92
盟@@ 91
胯 91
鬓@@ 91
🦆 91
賉 91
髌@@ 91
➰ 91
𝒕 91
醇@@ 91
颤 91
笆 91
anci@@ 91
🧩 91
鸦 91
𝑶 91
gogor@@ 91
manufacture@@ 91
𝒔 91
ᴱ 91
蛙@@ 91
嗮 91
𝚎 91
➽ 91
ํ 91
尿酸 91
獭@@ 91
痧 91
枢@@ 91
廚 91
贮@@ 91
戟 90
篱@@ 90
わ 90
拒 90
▍ 90
ッ 90
偎 90
郑 90
渗 90
銀 90
อ@@ 90
simil@@ 90
筹 90
χ@@ 90
補 90
楔 89
梢 89
痰@@ 89
憩 89
邬 89
馥@@ 89
哒 89
魏@@ 89
铵 89
乾 89
噢 89
醚 89
爐 89
軸 89
咨@@ 89
闺@@ 88
斋@@ 88
〞 88
氙@@ 88
joh@@ 88
逃 88
ｑ 88
杭 88
魯 88
奠@@ 88
豁@@ 88
鳗@@ 87
蟒@@ 87
flat-@@ 87
坯 87
粿 87
牢 87
佰 87
磊 87
糊@@ 87
妓 87
芮 87
ᴸ 87
ข 87
enterpri@@ 87
诠 87
络@@ 87
萧 87
腻@@ 87
conne@@ 87
撼 87
¢ 87
貿 87
措 87
県 87
氢@@ 87
絲 87
铣 87
飾 87
ĥ 87
橋 87
勢 87
尴@@ 86
尬 86
平底@@ 86
瑚@@ 86
脾@@ 86
鬃@@ 86
⋯ 86
奕 86
庚 86
声器 86
撸 86
壶@@ 86
崔@@ 86
詹 86
舰@@ 86
辞@@ 86
慰 86
懈 86
ร@@ 86
έ@@ 86
β@@ 86
唑 86
錢 86
acry@@ 86
魚 86
ō@@ 85
搅 85
鎏@@ 85
叭 85
蝉 85
狄@@ 85
帚 85
呕@@ 85
敞@@ 85
贱 85
哺@@ 85
ㄆ 85
irt 85
窟 85
须@@ 85
鼾 85
赐@@ 85
骆 85
谎@@ 85
晃 85
versa@@ 85
け 85
で 85
駐 85
ك 85
誤 85
膚 85
ulic 85
wardro@@ 84
༶ 84
抒@@ 84
perfu@@ 84
揉 84
🦑 84
𝐄 84
𝐦 84
鱼子 84
⇟ 84
遛 84
⌛ 84
骠@@ 84
玄 84
籐 84
ⓑ 84
羟@@ 84
宥 84
椿 84
დ 84
咏 84
ท 84
🥫 84
庇@@ 84
鱻 84
ˊ 84
闽 84
纷@@ 84
ʏ 84
🦺 84
🥯 84
⏰ 84
逼 84
伐@@ 84
狠 84
⛰ 84
蜗 84
ʟ 84
ᴛ 84
丢@@ 84
届@@ 84
溴 84
ث@@ 84
埋@@ 83
∼ 83
昶 83
樟 83
砍 83
か 83
瘙@@ 83
丧@@ 83
畜@@ 83
捧 83
ό@@ 83
関 83
央@@ 83
紐 83
髮 83
針 83
bourne 83
躲 82
诅@@ 82
呗 82
掷 82
哭@@ 82
惹 82
媚@@ 82
枯@@ 82
蔓@@ 82
熄@@ 82
斧@@ 82
叛 82
狱@@ 82
挫 82
เ@@ 82
穩 82
邁 82
肪@@ 82
遞 82
氓 81
绯@@ 81
茯@@ 81
肋@@ 81
ttle 81
⚫ 81
泻 81
狭@@ 81
せ 81
ロ 81
谦 81
些@@ 81
嘛 81
侍@@ 81
靶@@ 81
崖 81
б 81
徑 81
斷 81
غ@@ 81
虱 80
壬 80
邂@@ 80
弛 80
耆 80
呱@@ 80
呱 80
馏@@ 80
纲@@ 80
巷@@ 80
ู 80
咩 80
剖@@ 80
蚁@@ 80
↑ 80
¡ 80
η 80
吁 80
compan@@ 80
攝 80
淨 80
п 80
齡 80
谐@@ 80
蕨@@ 79
vacu@@ 79
衔 79
痴@@ 79
た 79
鲫 79
誌 79
缤 79
じ 79
椪 79
荒 79
沸@@ 79
✫ 79
楠@@ 79
烏 79
異 79
º@@ 79
breakfa@@ 79
涅@@ 79
屆 79
頂 79
賴 79
討 79
吼 78
尘器 78
univers@@ 78
蚀@@ 78
苇 78
敛 78
锚@@ 78
蓼 78
レ 78
劭 78
ไ 78
柾 78
堂@@ 78
辽 78
惟@@ 78
蜀 78
陸 78
灘 78
漢 78
濾 78
緊 78
ß 78
hic@@ 77
穷@@ 77
鹌@@ 77
鹑 77
屠@@ 77
🦪 77
纸尿@@ 77
meet@@ 77
𝒍 77
🥛 77
𝟑 77
🥜 77
柒@@ 77
🥀 77
霞 77
đ@@ 77
ᴰ 77
month@@ 77
锄@@ 77
亏 77
坜 77
◣ 77
㊗ 77
玧 77
ト 77
は 77
ⅰ 77
𝐧 77
‣ 77
➤ 77
𝐂 77
碌 77
怜 77
験 77
実 77
寸@@ 77
仆@@ 77
½ 77
鏈 77
銅 77
嬰 77
販 77
resour@@ 77
凰@@ 77
ð@@ 77
剔 76
韭@@ 76
rested 76
邵@@ 76
蜀@@ 76
雯 76
ช 76
あ 76
廈 76
顏@@ 76
亥@@ 76
г 76
沖 76
挚 76
録 76
宮 76
〒 76
慈 75
昱 75
褶@@ 75
profes@@ 75
胳@@ 75
扔 75
泻@@ 75
zhe@@ 75
颅 75
嬉@@ 75
摧@@ 75
颠@@ 75
耘 75
撰 75
搁@@ 75
淮@@ 75
usu@@ 75
邃 75
竞 75
ｅ 75
厘 75
ò 75
桩@@ 75
允 75
搬 75
難 75
彈 75
冗@@ 75
ā 75
樹 75
ī@@ 75
汕@@ 75
締 75
総 75
績 75
笺 74
拱 74
黄素 74
岑 74
铠 74
パ 74
jap@@ 74
ˢ 74
濑@@ 74
恼@@ 74
冢 74
寂@@ 74
珊 74
ậ 74
ợ 74
ọ 74
丧 74
ム 74
痣 74
碘 74
捍@@ 74
▷ 74
她@@ 74
屡 74
祉 74
嗙 74
singap@@ 74
蓋 74
潔 74
昏 73
piec@@ 73
蕴 73
败@@ 73
壹@@ 73
逛 73
こ 73
rele@@ 73
˙ 73
蚝@@ 73
沟@@ 73
扒@@ 73
タ 73
驭 73
谅 73
牺@@ 73
栈@@ 73
็ 73
笙 73
歩 73
億 73
theat@@ 73
啶 73
煙 73
岡 73
粑 72
娱 72
咳 72
巩@@ 72
铉 72
瑄 72
尻 72
チ 72
颗@@ 72
冶 72
甄@@ 72
滞 72
舷 72
鳗 72
袭@@ 72
駕 72
ό 72
錯 72
proble@@ 72
棵 71
靛@@ 71
饥@@ 71
cript 71
涌@@ 71
劫 71
メ 71
⛓ 71
钗 71
嗜 71
ồ 71
禹 71
苛 71
拽 71
昔@@ 71
焗 71
诠@@ 71
庇 71
迟@@ 71
劫@@ 71
複 71
睐 71
barcel@@ 71
屹@@ 70
霜@@ 70
现代@@ 70
🧦 70
啵@@ 70
屐 70
‖ 70
⤐ 70
鸵@@ 70
搏@@ 70
ᴍ 70
级@@ 70
驹 70
迦@@ 70
蒋 70
壸 70
啄 70
萦 70
咘 70
轰 70
𝐒 70
𝐫 70
咔@@ 70
咩@@ 70
❂ 70
🤠 70
𫚉 70
🧊 70
❋ 70
プ 70
ナ 70
窃@@ 70
ح 70
ă@@ 70
ş 70
น@@ 70
贸@@ 70
﹕ 70
ف 70
翡 69
痔@@ 69
稽 69
湃 69
撬@@ 69
逍@@ 69
韵@@ 69
幽 69
噬 69
汶 69
疆@@ 69
宸 69
锑 69
糠 69
ｓ 69
橇 69
樽 69
篇@@ 69
袁@@ 69
儀 69
櫃 69
mately 69
践@@ 69
閒 69
裏 69
ý@@ 69
麽 69
charge@@ 68
惟 68
廖 68
崧 68
葬 68
箫 68
ể 68
萍 68
硼@@ 68
卿 68
囚@@ 68
杉@@ 68
崇 68
癖 68
岘@@ 68
隶 68
劇 68
þ@@ 68
啄@@ 67
langu@@ 67
σ 67
沣 67
漩@@ 67
kasu@@ 67
芹@@ 67
鲨@@ 67
蓓@@ 67
肮@@ 67
叽@@ 67
俩 67
어 67
喘 67
陵@@ 67
生素 67
卻 67
õ@@ 67
ά@@ 67
譽 67
鮮 67
膀@@ 66
靴@@ 66
楝 66
酢 66
荞 66
粿@@ 66
fili@@ 66
ū@@ 66
矢 66
寅 66
邱@@ 66
พ 66
箍@@ 66
岐 66
焚@@ 66
豉 66
跷@@ 66
召 66
厦 66
韋 66
activi@@ 66
麥 66
誉@@ 66
純 66
敖@@ 66
憾 66
ť 66
吠 65
矛 65
贞@@ 65
妒 65
朋@@ 65
フ 65
卜 65
琊 65
侃@@ 65
凋 65
哀 65
ㅣ 65
岫@@ 65
删 65
竺 65
ɢ 65
绎 65
潼 65
括@@ 65
欠 65
ั@@ 65
濕 65
ł@@ 65
睦 65
経 65
alumin@@ 64
掀@@ 64
枯 64
庞 64
痒@@ 64
预付@@ 64
饶@@ 64
掠@@ 64
ㄉ 64
粟@@ 64
履 64
銲 64
ผ 64
寇 64
窑@@ 64
琐 64
哑 64
濑 64
哀@@ 64
々 64
姚 64
钦 64
夠 64
î@@ 64
諮 64
閉 64
感器 64
茲 64
ency 64
‎ 63
溅@@ 63
耻@@ 63
蝴蝶@@ 63
皓 63
娶 63
筷@@ 63
◗ 63
ᴼ 63
𝘰 63
▅ 63
彦@@ 63
¿ 63
𝐔 63
ⅲ 63
🦈 63
吖 63
ｌ 63
琪@@ 63
赵 63
🧀 63
ᴘ 63
蹒 63
誏 63
吾@@ 63
☻ 63
ᴅ 63
𝒊 63
哉 63
瓢@@ 63
魈 63
🧵 63
駛 63
慶 63
ก@@ 63
幾 63
誰 63
洱 62
衔@@ 62
悄@@ 62
脚踏@@ 62
肋 62
烹 62
俱@@ 62
ề 62
鉄 62
≈ 62
雏@@ 62
夸 62
遵 62
诵@@ 62
叛@@ 62
赎@@ 62
浜 62
ffered 62
擋 62
č 62
淆 62
balcon@@ 62
苛@@ 62
̷ 62
摔@@ 61
鸠 61
汞 61
纬@@ 61
稠 61
浇 61
处理@@ 61
玮 61
ụ 61
咔 61
広 61
โ 61
陌 61
จ 61
杭@@ 61
圭@@ 61
咳@@ 61
蕴@@ 61
昇 61
縮 61
ternity 61
競 61
徵 61
願 61
憶 61
薦 61
貓 61
嗝 60
嫉@@ 60
帯 60
晾 60
guit@@ 60
倪 60
倡 60
near@@ 60
鄂@@ 60
巅 60
怒@@ 60
荔 60
攀 60
ニ 60
枋 60
沧@@ 60
葬@@ 60
撮@@ 60
寛 60
≫ 60
ล@@ 60
貼 60
歳 60
勋@@ 59
蓟 59
autu@@ 59
sleeve@@ 59
氰@@ 59
｢ 59
｣ 59
钰 59
ウ 59
鼬 59
塌 59
grow@@ 59
峨 59
戊 59
颉 59
entertain@@ 59
ｋ 59
肆 59
狸@@ 59
nove@@ 59
娥 59
淫 59
리 59
肛 59
轩@@ 59
谍@@ 59
螯@@ 59
孟 59
芥 59
吓@@ 59
辻 59
各样 59
⚽ 59
advant@@ 59
診 59
钴 59
ด@@ 59
channe@@ 59
฿ 59
掃 59
擴 59
饥 58
屈 58
蹲@@ 58
驴@@ 58
珐@@ 58
thurs@@ 58
逾@@ 58
鹭 58
魁 58
◯ 58
哔 58
闩 58
堕@@ 58
歪 58
轿 58
蒋@@ 58
珮 58
氩@@ 58
锗 58
渴 58
魇 58
赎 58
堿 58
叻@@ 58
贰 58
坤@@ 58
烃 58
larg@@ 58
爭 58
賃 58
葉 58
鬆 58
ž 58
艮 57
烩 57
魂@@ 57
泷@@ 57
嵯@@ 57
琼 57
伶 57
苍 57
酌 57
鼯@@ 57
ù 57
鳟@@ 57
ブ 57
夭 57
荤 57
赘 57
獭 57
邱 57
이 57
摹 57
膊 57
券@@ 57
辩 57
＼ 57
υ@@ 57
儘 57
姓@@ 57
錦 57
盡 57
礎 57
deposi@@ 56
生儿 56
✂ 56
🦅 56
𝐝 56
𝒽 56
箕 56
❎ 56
矛@@ 56
婗 56
麋 56
牠 56
̅ 56
泫 56
⏩ 56
媕 56
◖ 56
🦁 56
芡@@ 56
⚘ 56
⛔ 56
丫@@ 56
𝘪 56
蝾@@ 56
螈 56
酣 56
🥢 56
𝟏 56
妤 56
咘@@ 56
咆@@ 56
哮 56
绍 56
瑛 56
え 56
𝙚 56
㊎ 56
𝑹 56
襦@@ 56
𝚝 56
𝚒 56
๋ 56
ᴜ 56
缐 56
亡@@ 56
➦ 56
♢ 56
榕 56
鰡 56
魠 56
锰 56
伡 56
ଓ 56
∥ 56
︵ 56
蜈@@ 56
馒 56
缕@@ 56
窈 56
县@@ 56
⌺ 56
ห@@ 56
ë@@ 56
graphi@@ 56
娛 56
誠 56
陳 56
۪ 56
۫ 56
₩ 56
thur@@ 56
纖 56
夾 56
ء 56
垛 56
拘@@ 56
ř@@ 56
鸸@@ 55
鹋 55
汝 55
基尼 55
疙@@ 55
瘩 55
∕ 55
inste@@ 55
つ 55
ｇ 55
蔗 55
蚬 55
ュ 55
吻@@ 55
咚 55
黒 55
玫@@ 55
槽@@ 55
辟 55
acies 55
reque@@ 55
絕 55
貴 55
淄@@ 55
rit 55
方米 55
凱 55
髻 54
〝 54
ミ 54
谜@@ 54
犁 54
椎@@ 54
獾 54
匀@@ 54
ự 54
渣@@ 54
湛@@ 54
ị 54
窍 54
违 54
鳄 54
孝 54
き 54
瘫 54
媽 54
贈 54
鎮 54
ī 54
⇢ 54
˚ 54
س 54
碘@@ 53
蕉@@ 53
pered 53
畑 53
搪@@ 53
跪@@ 53
奕@@ 53
绚@@ 53
绚 53
斩@@ 53
釉@@ 53
夕@@ 53
铐 53
嗽 53
嫌 53
泓 53
跃@@ 53
倦 53
翌@@ 53
詞 53
傑 53
吡@@ 53
査 53
畴 53
塊 53
腥 52
霄 52
manic@@ 52
喻 52
雌@@ 52
骸 52
坂@@ 52
瞳@@ 52
吠@@ 52
俞 52
悄 52
颤@@ 52
婷@@ 52
cospla@@ 52
呛@@ 52
栢 52
浄 52
ẻ 52
毅@@ 52
暮@@ 52
ื 52
嫁 52
⑧ 52
鞭@@ 52
舱@@ 52
濱 52
ิ@@ 52
舊 52
僱 52
妝 52
裆@@ 51
畸 51
汰@@ 51
趣@@ 51
箔@@ 51
辋 51
榫 51
舵@@ 51
臼 51
妃@@ 51
缮 51
桓 51
筠 51
珈 51
✍ 51
娟 51
薏 51
拇@@ 51
沂 51
恭 51
劣@@ 51
毽@@ 51
飙@@ 51
旱 51
攜 51
輛 51
taip@@ 51
潤 51
├ 51
侨@@ 51
堅 51
贫 51
痱@@ 50
塌@@ 50
mula 50
喽 50
秃 50
宙 50
琲 50
剔@@ 50
啸 50
辘 50
曹 50
咲 50
哞@@ 50
哞 50
攸 50
毓@@ 50
人节 50
晗 50
压器 50
苷 50
辐 50
咨 50
烩@@ 50
魄 50
蜱 50
浯 50
ઇ 50
趋 50
胰 50
缕 50
冯@@ 50
磐@@ 50
饶 50
談 50
様 50
郊 50
鎖 50
睹 50
ω@@ 50
覧 50
ć@@ 50
谅@@ 50
calend@@ 50
ม@@ 50
າ@@ 50
噴 50
🦖 49
厕@@ 49
ᐟ 49
ヘ 49
籼 49
◻ 49
cuis@@ 49
writ@@ 49
秦 49
✋ 49
🤚 49
➺ 49
捣 49
驮@@ 49
━ 49
🥞 49
ᴗ 49
檍 49
颚 49
篦@@ 49
◍ 49
蟆@@ 49
瞻 49
埸 49
揷 49
蒡@@ 49
熙@@ 49
라 49
𝒶 49
♡@@ 49
oud 49
砭@@ 49
𝙻 49
薛@@ 49
🧼 49
🪐 49
🥣 49
焿 49
⬛ 49
𝔹 49
篱 49
🦌 49
鹩@@ 49
⚾ 49
舜 49
𝐎 49
⛱ 49
翎@@ 49
啡 49
絜 49
🦕 49
☚ 49
楞 49
焖@@ 49
鸯@@ 49
🤖 49
🤙 49
ว@@ 49
径@@ 49
懷 49
欠@@ 49
ъ@@ 49
篡@@ 48
碍@@ 48
裳 48
闽@@ 48
镐 48
撷@@ 48
饕@@ 48
捉@@ 48
贻@@ 48
棱 48
檐@@ 48
犀 48
泣 48
茗@@ 48
怠@@ 48
凶@@ 48
橄 48
仗 48
ψ 48
豹@@ 48
咱@@ 48
昼 48
贮 48
ł 48
よ 48
蠢 48
ز 48
ส@@ 48
順 48
驅 48
ï@@ 48
۰ 48
賀 48
靜 48
対 48
冀 48
逮@@ 48
兮 47
羁 47
certif@@ 47
锰@@ 47
勿@@ 47
堇 47
央 47
藩 47
槿 47
钕@@ 47
噶 47
雍 47
瓣@@ 47
浊@@ 47
寮@@ 47
〡 47
寝 47
拐 47
湄@@ 47
縣 47
闊 47
吨@@ 47
嘱 47
恢 47
ś@@ 47
弄@@ 47
殺 47
閃 47
誕 47
珞 46
铎 46
凛 46
翩@@ 46
骁@@ 46
辈@@ 46
か@@ 46
玳@@ 46
瑁 46
盼 46
guaran@@ 46
铱 46
仟 46
⑤ 46
惰 46
弋 46
沧 46
兰迪 46
牦@@ 46
檬 46
闵@@ 46
俗@@ 46
嫌@@ 46
擔 46
effic@@ 46
夢 46
価@@ 46
渥@@ 46
勞 46
掛 46
θ@@ 46
ض 46
勵 46
寵 46
繳 46
乎@@ 46
爹 45
熹 45
斩 45
潟 45
聆 45
¯ 45
涪@@ 45
崽 45
秉 45
汝@@ 45
疱 45
◉ 45
兄@@ 45
ち 45
ホ 45
僧@@ 45
仇@@ 45
แ@@ 45
腳 45
懂@@ 45
欄 45
contri@@ 45
瞭 45
拥 45
雇 45
mainten@@ 45
趨 45
膺 45
谦@@ 45
晏@@ 44
towel@@ 44
玑 44
shri@@ 44
坛@@ 44
聂 44
挎 44
眨@@ 44
咽 44
ⓞ 44
佟 44
沸 44
嗦 44
颐 44
辜 44
愣 44
娄 44
虻 44
π 44
榉 44
玥 44
ド 44
谛 44
桦@@ 44
诀@@ 44
颊@@ 44
戸 44
择@@ 44
驴 44
↔ 44
鑽 44
綜 44
虽 44
慨 44
雜 44
ه 44
債 44
傍@@ 44
俞@@ 43
tball 43
瀛 43
撤 43
麺 43
andong 43
靡 43
珈@@ 43
铗 43
ダ 43
谭@@ 43
琶@@ 43
骐 43
郎@@ 43
萤 43
媞 43
畚@@ 43
ᴺ 43
煞@@ 43
ｗ 43
谊@@ 43
も 43
渤 43
ㄨ 43
佼@@ 43
缔 43
ガ 43
镒 43
择 43
袁 43
喇叭@@ 43
ior 43
́ 43
搔@@ 43
稠@@ 43
氦@@ 43
驟 43
罢@@ 43
wedn@@ 43
応 43
隻 43
変 43
◼ 42
椴@@ 42
🧔 42
够@@ 42
斥 42
𝐡 42
脐@@ 42
𝓈 42
orant 42
鎏 42
鹉 42
サ 42
込 42
弎 42
𝓮 42
𝓵 42
凖 42
ᴹ 42
喨 42
蛀@@ 42
🥥 42
〘 42
〙 42
ⓜ 42
⟪ 42
⟫ 42
ᵀ 42
⮨ 42
면 42
𝑒 42
祀 42
㊝ 42
苺 42
彤@@ 42
𝒅 42
𝚟 42
𝚖 42
𝐟 42
🟤 42
趋@@ 42
朽 42
🟡 42
🥨 42
キ 42
抺 42
奈儿 42
犀@@ 42
悬 42
ỡ 42
ặ 42
𝐻 42
馗 42
馨@@ 42
瑷 42
禄@@ 42
🦎 42
🈴 42
◾ 42
劈@@ 42
ุ 42
≪ 42
아 42
ⓔ 42
菫 42
🥂 42
竿@@ 42
ジ 42
笨 42
🦊 42
𝟐 42
昧 42
δ 42
蔴 42
蛮 42
棚@@ 42
竭 42
𝑎 42
ϟ 42
冕 42
铆 42
茹 42
尉 42
瑙@@ 42
棧 42
餘 42
莊 42
γ@@ 42
齒 42
aland 42
塘@@ 42
﹑ 42
凶 41
沾@@ 41
lugg@@ 41
専 41
锈@@ 41
ｈ 41
沼 41
コ 41
妨 41
ツ 41
逝@@ 41
驳@@ 41
宓 41
哎@@ 41
拷 41
喃 41
れ 41
腔@@ 41
畸@@ 41
执 41
歧 41
胞 41
譜 41
ώ@@ 41
ά 41
帷@@ 41
马哈 41
叹@@ 41
墊 41
ط 41
鋁 41
觸 41
ี@@ 41
pharmac@@ 41
繩 41
災 41
搁 40
莹@@ 40
腺@@ 40
焼 40
挞 40
陨@@ 40
隍@@ 40
姊 40
姑 40
て 40
茱@@ 40
姥 40
顽 40
虐 40
僧 40
戎 40
屉 40
霆 40
瑶 40
怦@@ 40
惫 40
薬 40
窍@@ 40
倉 40
婦 40
齊 40
効 40
慷@@ 40
穌 40
ò@@ 40
澤 40
剛 40
稿@@ 40
償 40
ً 40
囲 40
籌 40
刪 40
弁 40
衷@@ 40
車@@ 40
簇@@ 39
衫@@ 39
哆 39
derly 39
惑@@ 39
蟒 39
驰@@ 39
wered 39
窦@@ 39
thail@@ 39
殇 39
墟 39
unes 39
尹@@ 39
鳕 39
毋 39
蚌 39
逢@@ 39
莴@@ 39
禽@@ 39
韶@@ 39
蜕@@ 39
醺 39
邓 39
砰 39
ｏ 39
糠@@ 39
塗 39
λ 39
寧 39
坟@@ 39
ظ@@ 39
揚 39
述@@ 39
卑@@ 39
滞@@ 39
錶 39
冯 39
拢 38
〃 38
銮 38
榆@@ 38
篆@@ 38
穗@@ 38
惨@@ 38
尔夫 38
滢 38
嶋 38
翊 38
垮 38
欺 38
バ 38
め 38
べ 38
や 38
咏@@ 38
惬@@ 38
锌@@ 38
鬣 38
疝@@ 38
ネ 38
剁 38
chocol@@ 38
鹃@@ 38
龚@@ 38
慌 38
遁 38
ノ 38
垄@@ 38
compon@@ 38
ง@@ 38
妨@@ 38
邸 38
礦 38
獻 38
霧 38
昏@@ 38
颇 38
ѕ 37
缟 37
铛 37
荤@@ 37
瞌@@ 37
寰@@ 37
の@@ 37
motive 37
楽 37
鞠 37
奸@@ 37
사 37
谁@@ 37
anni@@ 37
框@@ 37
桢 37
ベ 37
禀 37
扦@@ 37
宪 37
岭@@ 37
烷@@ 37
岚@@ 37
ổ 37
遗 37
篙 37
拘 37
渊@@ 37
収 37
材@@ 37
匆@@ 37
殼 37
惕 37
撥 37
繪 37
信用@@ 37
壽 37
曆 37
鈕 37
爲 37
鲟 36
蛀 36
绉 36
桨@@ 36
泸 36
蓖@@ 36
드 36
莞 36
噩@@ 36
寞 36
崎@@ 36
ⓐ 36
秤@@ 36
烘干@@ 36
泓@@ 36
ゃ 36
傅@@ 36
拦 36
胧 36
汐@@ 36
夭@@ 36
辐@@ 36
蘸 36
啤 36
桜 36
邹 36
彗@@ 36
砌 36
淬 36
菖@@ 36
秃@@ 36
埕 36
ą 36
蜒 36
方位 36
生堂 36
霞@@ 36
辊@@ 36
昵@@ 36
贷@@ 36
〈 36
淳 36
迴 36
齢 36
己@@ 36
阈@@ 36
塵 36
瑙 36
褲 36
彙 36
済 36
ή 36
偉 36
壇 36
鳥 36
鄉 36
ج 36
ư@@ 36
劝 35
〰 35
叭@@ 35
佰@@ 35
𫄶 35
杈 35
⛑ 35
𝒟 35
𝓎 35
𝓅 35
羚@@ 35
饴@@ 35
悚 35
蹒@@ 35
跚 35
커 35
🦸 35
🦦 35
𓌉 35
𓇋 35
邰 35
𰾭 35
ⓘ 35
ㄌ 35
𝟒 35
ᴾ 35
唢@@ 35
𝘦 35
𝘳 35
颌 35
› 35
𝓃 35
哎 35
𝑪 35
☯ 35
ẫ 35
ỏ 35
🤟 35
嘻 35
袪 35
瑀 35
𝐩 35
𝐲 35
🆙 35
尧 35
⧓ 35
葆 35
ξ 35
侏 35
㑩 35
忌@@ 35
 35
膨 35
𝐉 35
⛩ 35
梧@@ 35
ﷴ 35
欉 35
晳 35
⟡ 35
憨 35
鳯 35
🦮 35
𝕝 35
髋@@ 35
孢 35
🧇 35
蕈 35
笭 35
刈@@ 35
ᴡ 35
🤞 35
𝐆 35
↬ 35
荖 35
𝐃 35
毬 35
⛽ 35
飓@@ 35
鞠@@ 35
ғ 35
𝕣 35
ฅ 35
⚖ 35
撢 35
🈲 35
🆗 35
荃 35
⛄ 35
ʚ 35
褂@@ 35
嘲@@ 35
≧ 35
轱@@ 35
鲛 35
麂 35
裴 35
𝐌 35
戽@@ 35
だ 35
❘ 35
ｄ 35
へ 35
buffe@@ 35
purpo@@ 35
澜@@ 35
雞 35
粵 35
譯 35
鋪 35
虞 35
沮@@ 35
釋 35
倘@@ 35
电筒 34
幔 34
chargeable 34
婉 34
metat@@ 34
瓢 34
褪 34
曳 34
鲑 34
祯 34
隈 34
烬 34
赦 34
襄 34
淼 34
芜 34
が 34
戚 34
犒@@ 34
耸@@ 34
挠@@ 34
単 34
鑼 34
麵@@ 34
忽 34
暢 34
ُ@@ 34
揽 34
潛 34
検 34
喧@@ 34
蝉@@ 33
铑 33
t-out 33
toge@@ 33
摩托@@ 33
柬 33
鹊 33
掣 33
鳄@@ 33
眷@@ 33
蛤 33
ฟ 33
扛 33
缅 33
呐@@ 33
麓 33
セ 33
璟 33
기 33
妄@@ 33
嗅 33
孵 33
蛾 33
¼ 33
讼@@ 33
絶 33
oriz@@ 33
บ@@ 33
緩 33
幹 33
皖 33
脫 33
阜 33
₽ 33
跡 33
蓮 33
嚴 33
і@@ 33
ξ@@ 33
側 33
讷 33
讷@@ 33
祸 33
続 33
紋 33
espec@@ 32
kini 32
芫@@ 32
荽 32
傻 32
腈@@ 32
烂@@ 32
瑶@@ 32
绗 32
徕@@ 32
呵 32
稚 32
jamas 32
ầ@@ 32
嗡 32
丈 32
犇 32
梓 32
淹@@ 32
鹃 32
➔ 32
荟 32
腑 32
靛 32
∷ 32
ใ 32
芪 32
跪 32
ど 32
昊@@ 32
驿@@ 32
瑰@@ 32
笨@@ 32
▹ 32
锣 32
庸 32
榔 32
惨 32
燒 32
ไ@@ 32
铬@@ 32
陋 32
ż@@ 32
颁 32
腓 32
湯 32
ນ@@ 32
โ@@ 32
輝 32
ū 32
centur@@ 32
咭 32
絮@@ 31
姗@@ 31
缇@@ 31
沫@@ 31
蹬 31
鲟@@ 31
rader 31
莞@@ 31
τ 31
萎@@ 31
オ 31
瘘 31
坪@@ 31
熄 31
芸@@ 31
阖 31
壬@@ 31
ｖ 31
菅@@ 31
扳 31
泯 31
踢@@ 31
ズ 31
﹥ 31
榄@@ 31
￦ 31
翁@@ 31
瞒 31
増 31
阜@@ 31
卒 31
頒 31
遺 31
磺@@ 31
̇ 31
険 31
攤 31
酌@@ 31
ų 31
眺@@ 31
跻@@ 31
転 31
晤@@ 31
禺 31
ч 31
公寓@@ 31
詐 31
鲀 30
潇 30
ē@@ 30
憬 30
立体@@ 30
痹 30
沥 30
leis@@ 30
莺 30
ｂ 30
☉ 30
ⓨ 30
苫@@ 30
鳝 30
唛 30
挫@@ 30
朦@@ 30
っ 30
炽 30
茁 30
贰@@ 30
莓@@ 30
殊 30
吵 30
闯 30
汲@@ 30
诃@@ 30
砸 30
苎@@ 30
昼@@ 30
璇 30
冽 30
媛 30
ャ 30
揽@@ 30
炔 30
骅 30
₂ 30
栩 30
堀 30
惰@@ 30
芜@@ 30
ث 30
ค@@ 30
ย@@ 30
畢 30
峭 30
貢 30
衝 30
马卡@@ 30
傢 30
暫 30
寓 30
ё@@ 30
靖@@ 30
∙ 30
併 30
挚@@ 30
糧 30
⋅ 30
嗓@@ 29
裥 29
ョ 29
粼 29
鼬@@ 29
砚@@ 29
盼@@ 29
耽 29
氩 29
鲢@@ 29
佗 29
ừ 29
蛛@@ 29
羯 29
誔 29
曝 29
楷 29
殡@@ 29
锄 29
钯 29
κ 29
⚙ 29
吵@@ 29
嗯@@ 29
遨@@ 29
豇@@ 29
唧 29
鸦@@ 29
佶 29
棺 29
莳 29
鲶@@ 29
捻 29
砾 29
마 29
涟 29
唬 29
ถ 29
捶@@ 29
嚎 29
胯@@ 29
荐@@ 29
ẩ 29
锭@@ 29
reng@@ 29
す 29
亭@@ 29
牵 29
睑 29
⑥ 29
抬 29
屹 29
烨 29
灼@@ 29
伝 29
bucks 29
ท@@ 29
验室 29
瞩@@ 29
陕 29
愧 29
陡@@ 29
fid 29
凍 29
騎 29
羧@@ 29
谎 29
贿@@ 29
ough 29
岳@@ 29
桿 29
処 29
哮@@ 29
ນ 29
㎜ 29
厉 29
ï 29
贊 29
钎@@ 29
磕 28
粑@@ 28
refri@@ 28
𝐠 28
巢@@ 28
芺 28
哖 28
砗@@ 28
磲 28
公子 28
骇@@ 28
鶧 28
嫚 28
﹦ 28
🦟 28
❕ 28
🅺 28
🆁 28
🅴 28
🅰 28
𝒑 28
 28
橼 28
澔 28
♜ 28
籁 28
璃@@ 28
𩾇 28
拇 28
ⓖ 28
ㄕ 28
楂@@ 28
恣 28
悔@@ 28
乍@@ 28
𝘍 28
🧻 28
𝒸 28
𝟓 28
ﺴ@@ 28
瞇 28
屌@@ 28
皀 28
🟨 28
庶@@ 28
🤫 28
虞@@ 28
喰@@ 28
𝐏 28
芗 28
耙 28
皙@@ 28
底衫 28
饕 28
縄 28
🧤 28
𝐛 28
𝙣 28
ね 28
朽@@ 28
⊂ 28
螳 28
掬@@ 28
睪 28
🦔 28
‬ 28
卡丘 28
𝐁 28
⧫ 28
🦞 28
擎 28
◂ 28
尪 28
ㄤ 28
𫉄 28
🧜 28
🥘 28
昭 28
蝈 28
🧺 28
髪@@ 28
╋ 28
𝔸 28
馋@@ 28
⊛ 28
ヤ 28
丅 28
硒 28
蔺@@ 28
蚵 28
觅@@ 28
塩@@ 28
绯 28
🦠 28
苡@@ 28
搟 28
⛵ 28
🪄 28
婧@@ 28
祎 28
❶ 28
ᴄ 28
🦀 28
𝐓 28
蚣 28
蚣@@ 28
ɞ 28
🧄 28
⪡ 28
⪢ 28
❮ 28
❯ 28
⚓ 28
ｒ 28
𝐈 28
鲣 28
嗲 28
∆ 28
🤘 28
⁑ 28
𝑡 28
⏱ 28
岐@@ 28
濒@@ 28
浑@@ 28
辭 28
∶ 28
螢 28
镗@@ 28
ě 28
毎 28
悯 28
惡 28
癫@@ 28
牆 28
署@@ 28
ш 28
橫 28
顆 28
embroi@@ 27
针织@@ 27
贱@@ 27
狡@@ 27
擒@@ 27
躁@@ 27
飒 27
玖@@ 27
囱 27
珉 27
碑@@ 27
但@@ 27
僻 27
愉 27
碾@@ 27
舟@@ 27
匿 27
巿 27
惹@@ 27
糸 27
慎@@ 27
庐 27
驿 27
艙 27
υ 27
آ@@ 27
麵 27
滾 27
壞 27
嗪 27
劉 27
帧@@ 27
ğ@@ 27
ต@@ 27
殘 27
÷ 27
赂 27
动员 27
盃 27
ń 27
氏@@ 27
壺 27
domes@@ 27
≦ 27
艰 26
嘘 26
钹 26
busin@@ 26
嫦@@ 26
羚 26
鞣@@ 26
壕 26
媳@@ 26
绪@@ 26
嘶 26
町@@ 26
洼 26
そ 26
耦 26
瀑 26
骂 26
⑦ 26
凿@@ 26
雁@@ 26
ů 26
ĵ 26
喬 26
憑 26
権 26
掺 26
鹽 26
蚌@@ 26
佔 26
咫@@ 26
検@@ 26
堰 26
γ 26
洙 26
ή@@ 26
餅 26
浏 26
発@@ 26
溝 26
閲 26
让@@ 26
稽@@ 26
t-in 25
龛 25
嵊@@ 25
距@@ 25
躯@@ 25
婿 25
棵@@ 25
⁵ 25
奸 25
鹄 25
傀@@ 25
儡 25
劝@@ 25
撇 25
｛ 25
庚@@ 25
钒 25
瘟@@ 25
雏 25
汶@@ 25
蒿 25
瑠 25
̂ 25
ビ 25
谬 25
呤 25
涩@@ 25
膛 25
戊@@ 25
traf@@ 25
馈@@ 25
萘 25
砌@@ 25
➢ 25
脈 25
顿@@ 25
緻 25
癸 25
恳@@ 25
徹 25
æ 25
effe@@ 25
満 25
竟@@ 25
羟 25
勉@@ 25
単@@ 25
吡 25
酐 25
咯 25
博物@@ 25
〇 25
後@@ 25
飪 25
tomor@@ 25
嚣 25
閥 25
淦 24
嚎@@ 24
寨@@ 24
痂 24
砚 24
趁 24
酯@@ 24
璜 24
莪 24
擂@@ 24
ｙ 24
胫 24
수 24
蓟@@ 24
吔 24
砥@@ 24
桉@@ 24
慑 24
⋆ 24
翱@@ 24
梧 24
喳@@ 24
喳 24
グ 24
筱@@ 24
虔@@ 24
モ 24
穹@@ 24
犸 24
刁 24
铨 24
⦁ 24
掸 24
崴 24
泷 24
芊 24
ซ 24
祈 24
胱@@ 24
姫 24
娃@@ 24
氪@@ 24
譬@@ 24
獸 24
ķ 24
炜 24
騰 24
荃@@ 24
籃 24
韬 24
咐 24
廊@@ 24
呃 24
怜@@ 24
└ 24
蔵 24
瞧 24
濠 24
ì@@ 24
徳 24
簿@@ 24
ກ@@ 24
遙 24
⟵ 24
鈴 24
℉ 24
団 24
馈 24
ц 24
贏 24
∮ 24
籼@@ 23
圏 23
睁@@ 23
⎛ 23
⎞ 23
熠@@ 23
忏@@ 23
亳 23
崖@@ 23
↗ 23
搂 23
蔚 23
栎 23
脾 23
茧@@ 23
趾@@ 23
酬@@ 23
戮 23
廓@@ 23
ペ 23
焰@@ 23
⨯ 23
酵@@ 23
妞@@ 23
栋@@ 23
晌 23
怕@@ 23
镊 23
彷 23
贻 23
恬@@ 23
祸@@ 23
莳@@ 23
刈 23
愁 23
吱 23
廖@@ 23
笃 23
轲 23
淮 23
다 23
隅 23
莘 23
戦 23
濯 23
岱 23
硝 23
ί 23
ρ 23
噸 23
谤 23
滙 23
盯@@ 23
仍@@ 23
臟 23
î 23
javas@@ 23
垦 23
鮑 23
镉 23
溧@@ 23
泾 23
ヶ 23
і 23
礙 23
氰 23
違 23
疊 23
humid@@ 23
谴@@ 23
恪@@ 23
傭 23
酊 22
鹦@@ 22
惇 22
桁@@ 22
ninten@@ 22
茁@@ 22
さ@@ 22
黯 22
掸@@ 22
憨@@ 22
剌 22
骋 22
猾 22
ⓛ 22
渠 22
산 22
➎ 22
琏 22
ำ 22
霆@@ 22
ⅳ 22
雍@@ 22
デ 22
臼@@ 22
擂 22
墩@@ 22
欸 22
爻 22
羔 22
蕙 22
殷@@ 22
傩 22
荟@@ 22
➜ 22
隋@@ 22
豊 22
ủ 22
蟆 22
枭 22
蓁 22
鳀 22
夯@@ 22
咽@@ 22
莿 22
ボ 22
遂@@ 22
冥 22
桉 22
皓@@ 22
楹 22
绢@@ 22
殴 22
û 22
刃@@ 22
暦 22
￭ 22
綫 22
ใ@@ 22
诽@@ 22
銹 22
鞑@@ 22
偵 22
蘋@@ 22
ж 22
한 22
국 22
摺 22
ę@@ 22
釘 22
呂 22
棄 22
説 22
瞥 22
febr@@ 22
肇@@ 22
錫 22
搐 22
鍊 22
臉 22
遜 22
relev@@ 22
濃 22
渤@@ 22
漳@@ 22
槍 22
敵 22
≡ 22
遶 21
崭 21
𥐟 21
ⓠ 21
𝑬 21
昕@@ 21
🪒 21
跖@@ 21
ulzz@@ 21
ー@@ 21
匕@@ 21
🫶 21
🥾 21
﹂ 21
﹋ 21
𝓶 21
𝓲 21
𝓬 21
𝓱 21
咤 21
鸭舌@@ 21
🥸 21
🤪 21
伢 21
抒 21
𝟗 21
鳙 21
棺@@ 21
圑 21
♖ 21
︼ 21
晟@@ 21
枳@@ 21
椇 21
dery 21
🅢 21
🅧 21
🅛 21
𝘛 21
𝘋 21
馔@@ 21
🥟 21
荸@@ 21
荠 21
▂ 21
▃ 21
♒ 21
𝟖 21
▛ 21
▟ 21
🧴 21
⬆ 21
𝙡 21
٩ 21
ザ 21
― 21
🧑 21
⬅ 21
蕲@@ 21
睪@@ 21
ㄡ 21
苕 21
炁 21
嫘@@ 21
🦴 21
𝙞 21
🈺 21
蛐 21
骐@@ 21
嫣 21
辗@@ 21
‮ 21
𝐊 21
蚵@@ 21
焢 21
魩 21
𝙖 21
𝕟 21
𝕦 21
𝕤 21
机器@@ 21
ꫛ 21
ꫀ 21
ꪝ 21
籽@@ 21
ứ 21
🥪 21
覃 21
滟 21
ᴋ 21
🩺 21
❙ 21
烽@@ 21
抺@@ 21
嬛 21
槲@@ 21
舤 21
🅱 21
绡 21
殒@@ 21
🥉 21
🩸 21
婶 21
㉿ 21
🥺 21
枋@@ 21
洄 21
犽 21
로 21
撼@@ 21
铔 21
ℕ 21
𝕨 21
𝕒 21
🤵 21
羙 21
∰ 21
狃@@ 21
⬇ 21
부 21
窦 21
ⓝ 21
亱 21
胷 21
史迪@@ 21
′ 21
⎜ 21
🪥 21
糍@@ 21
🥷 21
🥓 21
🧠 21
⇤ 21
⇥ 21
⏦ 21
🥮 21
◃ 21
囡 21
🪶 21
燄 21
🦩 21
🥶 21
✏ 21
暧@@ 21
🥩 21
𝐖 21
辰@@ 21
𝑊 21
＇ 21
扔@@ 21
婵 21
斤@@ 21
粲 21
🧂 21
ᴬ 21
ピ 21
喇@@ 21
❷ 21
🟢 21
𝐰 21
峇@@ 21
ỉ 21
🪵 21
ᴿ 21
ㄦ 21
撘 21
ゅ 21
噐 21
🤰 21
択 21
ㄞ 21
𝒃 21
晤 21
靼 21
ț@@ 21
ľ@@ 21
詩 21
贬@@ 21
纜 21
遷 21
邢@@ 21
檯 21
ة@@ 21
啉 21
califor@@ 21
ℓ 21
緣 21
ລ@@ 21
図 21
讽@@ 21
鉛 21
衢@@ 21
跤 21
恳 21
鄞@@ 21
枚@@ 21
釐 21
蟲 21
苴 21
膦 21
湄 21
颌@@ 21
tailed 20
俘@@ 20
钎 20
莆@@ 20
俑 20
萎 20
寰 20
钾@@ 20
雌 20
瞎 20
餮 20
诩 20
羿 20
挣 20
匙@@ 20
嘌@@ 20
夷@@ 20
娆 20
茹@@ 20
敖 20
음 20
牟@@ 20
诵 20
碩 20
蹈@@ 20
賢 20
磯 20
琢 20
辆@@ 20
磐 20
吲@@ 20
哚 20
淺 20
噻@@ 20
剤 20
紗 20
ข@@ 20
ช@@ 20
ັ@@ 20
∟ 20
ń@@ 20
沽@@ 20
ອ@@ 20
讚 20
浚 20
ุ@@ 20
ᵃ 20
獵 20
驚 20
ọ@@ 20
esthou@@ 20
₴ 20
驮 19
拂@@ 19
込@@ 19
鹕 19
spla@@ 19
牒 19
鹭@@ 19
垄 19
熵 19
韶 19
疱@@ 19
冉 19
ẹ 19
炽@@ 19
ⅴ 19
淞 19
樊@@ 19
宛@@ 19
羲 19
梓@@ 19
嵩 19
璧 19
隋 19
焚 19
晦@@ 19
嘧 19
疲 19
骂@@ 19
스 19
祇 19
缉 19
하 19
缉@@ 19
邹@@ 19
砰@@ 19
擘 19
阔@@ 19
╱ 19
徘@@ 19
徊 19
õ 19
働 19
嘗 19
ύ@@ 19
ệ@@ 19
惧@@ 19
肢@@ 19
opport@@ 19
児 19
廢 19
鎊 19
躍 19
祠 19
熠 19
呻@@ 19
匝 19
ё 19
叁 19
廿@@ 19
樑 19
吩@@ 19
⟶ 19
詠 19
¾ 19
鳳 19
ő 19
痫 19
挪@@ 19
ė@@ 19
邯@@ 19
甸@@ 19
者@@ 19
鷹 19
渎 19
្ 19
จ@@ 19
翌 19
钜 19
麦当@@ 19
嗒 19
ວ@@ 19
ຫ@@ 19
姚@@ 19
↩ 19
歸 19
े 19
铵@@ 18
徕 18
岖 18
墅@@ 18
匪 18
秧@@ 18
阑@@ 18
孢@@ 18
歆 18
啮@@ 18
煦 18
エ 18
衞 18
叨 18
轭 18
殷 18
̉ 18
琅@@ 18
榎 18
犷 18
고 18
｝ 18
寇@@ 18
冤@@ 18
擒 18
寡 18
芮@@ 18
荨@@ 18
杞@@ 18
儒@@ 18
臻@@ 18
蜇 18
赴@@ 18
遐@@ 18
滇@@ 18
む 18
匆 18
㎝ 18
裴@@ 18
¬ 18
孚@@ 18
綴 18
誓@@ 18
懸 18
谣@@ 18
値 18
۰@@ 18
繞 18
涛@@ 18
恺 18
吳 18
亰 18
禦 18
賠 18
鋰 18
recruit@@ 18
喙 18
خ 18
鍋 18
攪 18
ເ@@ 18
措@@ 18
赦@@ 18
舆@@ 18
滬 18
鍛 18
郸 18
崂@@ 18
髡 18
嘧@@ 18
縱 18
distri@@ 18
棟 18
乍 18
倚 18
瓯 18
乏@@ 18
羁@@ 17
骞 17
宕@@ 17
潟@@ 17
弩 17
肃@@ 17
歙@@ 17
蟾@@ 17
汛 17
哝 17
泗@@ 17
扯@@ 17
ｆ 17
璞@@ 17
捍 17
沱@@ 17
蓉@@ 17
歼 17
鋐 17
≠ 17
祁@@ 17
茱 17
佃 17
宰@@ 17
佑@@ 17
髋 17
篝@@ 17
冼 17
衙 17
瑾 17
⑨ 17
豫@@ 17
榛 17
瀬 17
笈 17
耍@@ 17
痴 17
娴 17
의 17
디 17
襯 17
轄 17
钼@@ 17
掺@@ 17
颇@@ 17
徙 17
砺 17
嗡@@ 17
ा 17
搶 17
﹣ 17
循@@ 17
埚 17
勉 17
溴@@ 17
resta@@ 17
釣 17
溃@@ 17
陣 17
ະ@@ 17
滕@@ 17
踐 17
ⅵ 17
腓@@ 17
ᐈ 17
徴 17
訟 17
両 17
騙 17
谘 17
軌 17
綿 17
彌 17
ດ 17
怨@@ 17
毎@@ 17
َ@@ 17
阖@@ 16
巽 16
囧 16
tware 16
碴 16
憧@@ 16
骡@@ 16
缰@@ 16
擀@@ 16
珩 16
蜍 16
扦 16
陛@@ 16
➣ 16
ポ 16
ぷ 16
隽@@ 16
邉 16
瑛@@ 16
喋@@ 16
铋 16
鲱@@ 16
捂 16
玮@@ 16
寅@@ 16
琍 16
扮@@ 16
ハ 16
ェ 16
ば 16
醮 16
ﾟ 16
腮 16
漪 16
廸 16
眩 16
ワ 16
慌@@ 16
荏 16
巳 16
舔@@ 16
陜@@ 16
捶 16
啧 16
钿 16
棒糖 16
ŧ 16
纮 16
ญ 16
謢 16
̀ 16
가 16
绢 16
나 16
恢@@ 16
琦@@ 16
廿 16
泠 16
涮@@ 16
⎝ 16
⎠ 16
刽@@ 16
呷@@ 16
ぐ 16
猕@@ 16
嫣@@ 16
歉@@ 16
対@@ 16
荫@@ 16
ů@@ 16
滅 16
嘅 16
蹟 16
銳 16
傾 16
曙 16
滁@@ 16
鑰 16
坩@@ 16
穀 16
肼 16
ą@@ 16
櫚 16
喻@@ 16
荔@@ 16
鳴 16
ğ 16
浙@@ 16
幡 16
饋 16
厢@@ 16
镗 16
ơ@@ 16
锛 16
楊 16
ậ@@ 16
﹐ 16
诫 16
ດ@@ 16
醬 16
漕 16
遏@@ 16
ป@@ 16
ř 16
櫥 16
栩@@ 16
猶 16
ິ@@ 16
窩 16
窒@@ 16
硏 15
虏 15
嘘@@ 15
讫 15
锲@@ 15
舷@@ 15
毂 15
洄@@ 15
い@@ 15
た@@ 15
먼 15
盎 15
蓣 15
朕 15
疥@@ 15
蔻@@ 15
荪 15
惫@@ 15
ぼ 15
ო 15
ひ 15
夷 15
囤 15
呪 15
彪 15
雉@@ 15
蹬@@ 15
叩 15
淑 15
钏 15
淸 15
淼@@ 15
浒@@ 15
裱@@ 15
厅@@ 15
砾@@ 15
碇 15
艋@@ 15
舺 15
垃 15
旼 15
外线 15
蔷 15
埼@@ 15
钴@@ 15
蓍 15
诘 15
舀 15
〗 15
讽 15
膑 15
耙@@ 15
掂 15
ず 15
개 15
ヒ 15
̈ 15
粱@@ 15
镕 15
김 15
우 15
榕@@ 15
치 15
妄 15
龚 15
钝 15
搽 15
蕃 15
炯@@ 15
鲽@@ 15
镧 15
犄@@ 15
鲳@@ 15
辺 15
蟾 15
扼 15
모 15
呜 15
腸 15
圳 15
慣 15
嗜@@ 15
鑑 15
払 15
् 15
賜 15
ħ 15
骤 15
罰 15
聰 15
乗 15
阮 15
巍 15
郝@@ 15
¹ 15
疡 15
悉@@ 15
鑄 15
耿 15
່ 15
ấ@@ 15
蠟 15
ｊ 15
賺 15
沌 15
酚@@ 15
ص 15
钽 15
貫 15
瞭@@ 15
蜿@@ 15
嚐 15
້ 15
裘@@ 15
岬 15
煜 15
軒 15
厩 15
嘈@@ 15
寐@@ 15
鍍 15
琛 15
緬 15
supp@@ 15
歴 15
峽 15
盜 15
兢@@ 15
ª 15
璎@@ 14
苡 14
鹗 14
瑿 14
騣 14
鸤 14
倏 14
𝕃 14
𝕩 14
簸@@ 14
蝗@@ 14
皲@@ 14
idered 14
淯 14
蝇@@ 14
ᴏ@@ 14
く@@ 14
霁@@ 14
芡 14
嫔@@ 14
钪 14
哦@@ 14
毡@@ 14
匾 14
咾 14
‑ 14
膑@@ 14
𦈏 14
⋈ 14
莒 14
逯 14
钜@@ 14
剉 14
尬@@ 14
嫃 14
瑯@@ 14
搽@@ 14
ⓑ@@ 14
ᴱ@@ 14
嗄 14
鸶 14
擡 14
鹬 14
贘 14
玨 14
ღ@@ 14
瘿 14
粼@@ 14
𝙪 14
𝙧 14
۶ 14
鳉 14
苿 14
懋 14
鋆 14
廋 14
🧒 14
㊖ 14
𓍼 14
🥖 14
↖ 14
褙@@ 14
郃 14
鲲 14
丞@@ 14
褶裙 14
薫 14
𝐘 14
⧕ 14
⧔ 14
坵 14
🧋 14
殉 14
捌 14
髄 14
貉@@ 14
繍 14
嗓 14
ǫ 14
苳 14
焑 14
檎 14
♾ 14
🅞 14
醡 14
❊ 14
邕 14
埙 14
🧁 14
珂@@ 14
钯@@ 14
⊰ 14
⚭ 14
穹 14
♋ 14
๊ 14
讳 14
绛 14
炀 14
❼ 14
𝘼 14
𝙙 14
▰ 14
枱@@ 14
𝚗 14
ℍ 14
𝕠 14
慊 14
滇 14
倢 14
嗽@@ 14
՞ 14
ﻌ 14
蚜@@ 14
禳@@ 14
畇 14
戗 14
별 14
嗨@@ 14
蔺 14
暻 14
姸 14
﻿ 14
荭 14
厰 14
筊 14
蓬头 14
𝓉 14
倩 14
ˇ 14
ễ 14
❨ 14
❩ 14
⛳ 14
蝪 14
🥄 14
ふ 14
𝐑 14
⸝ 14
昀 14
𝘮 14
🧏 14
시 14
埼 14
⏺ 14
𝐯 14
🥦 14
ŋ 14
藦 14
葩 14
𝑵 14
褔 14
锖 14
樋 14
🥲 14
🫁 14
𝕚 14
〄 14
르 14
哢 14
🤝 14
🧈 14
ㄎ 14
杋 14
❹ 14
蓪 14
䓫 14
🅔 14
🅝 14
砲@@ 14
🟧 14
菇@@ 14
花花@@ 14
ⓣ 14
挿 14
◜ 14
◝ 14
粥@@ 14
铰 14
裈 14
禈 14
🫧 14
蠓 14
牍 14
♐ 14
ˍ 14
⇝ 14
𝗶 14
𝘁 14
𝗹 14
𝘆 14
🥋 14
ⅹ 14
🧢 14
啧@@ 14
翟 14
🥻 14
ㄢ 14
骧 14
ᒚ 14
ᑢ 14
⏪ 14
🧪 14
╟ 14
╢ 14
菈@@ 14
膣 14
蝈@@ 14
鳝@@ 14
𝘩 14
𝘵 14
♁ 14
𝗾 14
◁ 14
🧣 14
玹 14
⚉ 14
蛩 14
🧃 14
🦍 14
テ 14
비 14
🤸 14
🦓 14
⧊ 14
𝙁 14
臃@@ 14
◔ 14
⌬ 14
鞘@@ 14
ᵕ 14
渼 14
๏ 14
ᵟ 14
𝐸 14
𝐼 14
𝑆 14
𝑁 14
𫊻 14
𝟎 14
槺 14
跩 14
란 14
濡@@ 14
萱@@ 14
🤹 14
偈 14
夣 14
☠ 14
吽 14
芊@@ 14
ょ 14
⑩ 14
鬓 14
绺 14
ศ 14
粳 14
菀 14
☥ 14
煨@@ 14
貘 14
噎 14
🧘 14
붕 14
濬 14
艿 14
🟣 14
❪ 14
❫ 14
忏 14
⇈ 14
❸ 14
錾@@ 14
澹 14
漩 14
粩 14
抻 14
檫 14
雫 14
🥗 14
𝑰 14
捥 14
烙 14
阎@@ 14
🅜 14
𝑂 14
𝐹 14
⎪ 14
ᴥ 14
간 14
嬿 14
鲔 14
蘗 14
𝑛 14
𝑘 14
𝑠 14
𝑟 14
은 14
钊 14
🅤 14
🅟 14
ろ 14
蓇 14
栄 14
囸 14
蕊@@ 14
眺 14
🤌 14
飞利@@ 14
𝘯 14
𝘨 14
〽 14
飮 14
渁 14
豞 14
喰 14
隽 14
⛥ 14
䄂 14
黔 14
̶ 14
鄰 14
鏽 14
欖 14
､ 14
furnit@@ 14
煉 14
簸 14
漿 14
湯@@ 14
慰@@ 14
黨 14
亚马@@ 14
煅@@ 14
遲 14
θ 14
甾@@ 14
嶺 14
钝@@ 14
砝@@ 14
侃 14
荘 14
恆 14
拧@@ 14
ớ@@ 14
罄 14
ន@@ 14
氪 14
夥@@ 14
喘@@ 14
掩 14
擾 14
蘇@@ 14
坯@@ 14
侶 14
赣 14
ल 14
遂 14
薑 14
ⅴ@@ 14
海道 14
į@@ 14
労 14
ố@@ 14
荆 14
ụ@@ 14
爺 14
أ 14
婪 14
谚@@ 13
赘@@ 13
ricul@@ 13
胛@@ 13
潇@@ 13
哑@@ 13
甾 13
阙 13
罡 13
卯 13
叩@@ 13
┆ 13
焖 13
俘 13
塾 13
胫@@ 13
炳@@ 13
钧@@ 13
蹂@@ 13
躏 13
允@@ 13
晃@@ 13
祁 13
啜 13
峦 13
溺@@ 13
ē 13
涓 13
啸@@ 13
雑 13
汚 13
缭@@ 13
匪@@ 13
沽 13
ู@@ 13
缪 13
謂 13
駿 13
観 13
孫 13
骤@@ 13
埭 13
游卡 13
曉 13
戀 13
跋@@ 13
搵 13
舜@@ 13
委员@@ 13
牲@@ 13
苟 13
愛@@ 13
ທ@@ 13
誘 13
溱 13
boulev@@ 13
棪 13
貧 13
ມ@@ 13
峪 13
苄 13
妫 13
ฟ@@ 13
辙 13
僚 13
飽 13
疟@@ 13
û@@ 13
衍 13
捲 13
抜 13
鈉 13
ę 13
ـ@@ 13
〖 13
銘 13
麥@@ 13
琬 13
峨@@ 13
र 13
septe@@ 13
铼 13
ﬁ@@ 13
煽@@ 13
娴@@ 13
ؤ@@ 13
趕 13
ि 13
浊 13
ứ@@ 13
嗣 13
菏@@ 13
ա@@ 13
် 13
⇔ 13
鹫 12
雹 12
鹈@@ 12
ộ@@ 12
颓@@ 12
ｐ@@ 12
⊿ 12
絵 12
茜@@ 12
斟@@ 12
寂 12
涟@@ 12
狠@@ 12
嘲 12
弾 12
黍 12
ゴ 12
犁@@ 12
阡 12
恙 12
倚@@ 12
怦 12
铈 12
ำ@@ 12
脓@@ 12
滘 12
懦@@ 12
य 12
弈 12
ʼ 12
蒽 12
皋 12
脲 12
殴@@ 12
ș@@ 12
鶴 12
顏 12
侮@@ 12
檸 12
瀚@@ 12
搪 12
พ@@ 12
顔 12
悚@@ 12
砷 12
疚 12
寐 12
婧 12
ি@@ 12
陰 12
approxi@@ 12
ব@@ 12
縁 12
従 12
曇 12
哌@@ 12
遣@@ 12
ạ@@ 12
斓 12
销商 12
雖 12
╣ 12
laki 12
氹@@ 12
艦 12
篩 12
偕 12
े@@ 12
獄 12
敗 12
ะ@@ 12
揮 12
瓯@@ 12
唉 12
鳌 12
ż 12
襄@@ 12
ຄ@@ 12
綱 12
镌@@ 11
妓@@ 11
楣 11
ン@@ 11
爹@@ 11
imum 11
黯@@ 11
旦@@ 11
诿 11
sleev@@ 11
怖@@ 11
曦@@ 11
苒 11
蹈 11
稔 11
瘀 11
巩 11
￼ 11
遁@@ 11
毙 11
蜷@@ 11
莽 11
拭@@ 11
抉 11
恪 11
堃 11
燊 11
脓 11
げ 11
恵 11
亥 11
沅@@ 11
ユ 11
苷@@ 11
闫 11
麒 11
燔 11
舎 11
棠@@ 11
璐@@ 11
狙 11
홈 11
呸 11
毘 11
铀 11
噩 11
愤 11
浒 11
غ 11
誼 11
绰@@ 11
迸@@ 11
ذ 11
毀 11
悅 11
砜 11
呋@@ 11
ा@@ 11
प 11
婭 11
桅 11
ƀ 11
丟 11
骊 11
莘@@ 11
崙 11
袂 11
岂 11
儀@@ 11
œ 11
罹@@ 11
旬@@ 11
ໂ@@ 11
ສ@@ 11
撇@@ 11
酝@@ 11
衆 11
annivers@@ 11
僻@@ 11
铁站 11
牟 11
棒球@@ 11
沪@@ 11
遴@@ 11
赁@@ 11
脅 11
亵@@ 11
沂@@ 11
ົ@@ 11
蝕 11
悖 11
э 11
拠 11
勁 11
癒 11
诲 11
髓@@ 11
亟@@ 11
甫@@ 11
眠@@ 11
逊@@ 11
▏ 11
鴻 11
न 11
म@@ 11
ं 11
ា@@ 11
紡 11
廂 11
颧@@ 11
涼 11
畿@@ 11
稗 11
ش 11
孜 11
铌 11
ʼ@@ 11
ś 11
œ@@ 11
诣 10
リ@@ 10
ス@@ 10
蛟@@ 10
瓿@@ 10
暈 10
茫@@ 10
ｉ@@ 10
ａ@@ 10
奘 10
喱@@ 10
鳃 10
珞@@ 10
趸 10
郫@@ 10
掷@@ 10
전 10
寥 10
佼 10
镖@@ 10
荼@@ 10
ณ 10
妊 10
缙@@ 10
瓿 10
箴 10
烽 10
镰 10
潭@@ 10
曰 10
扉@@ 10
晔 10
舆 10
⊃ 10
沅 10
洹 10
̣ 10
铍@@ 10
청 10
躯 10
채 10
嘿@@ 10
椤 10
苋@@ 10
则@@ 10
岫 10
匡 10
醴@@ 10
﹪ 10
冤 10
锺 10
憋@@ 10
帷 10
ⓢ 10
̲ 10
祗@@ 10
観@@ 10
ζ@@ 10
⑶ 10
穆斯@@ 10
旷 10
磋@@ 10
賦 10
ｍ@@ 10
谙 10
洩 10
嶼 10
悼 10
珩@@ 10
ế@@ 10
硒@@ 10
¨ 10
喹@@ 10
皆@@ 10
怠 10
浏@@ 10
漓@@ 10
龋@@ 10
弊@@ 10
腫 10
壯 10
淌 10
吩 10
萍@@ 10
撮 10
ʻ@@ 10
矗@@ 10
謹 10
禧@@ 10
圩 10
া@@ 10
؟ 10
រ@@ 10
雞@@ 10
ប@@ 10
ⅱ@@ 10
頸 10
晉 10
羰 10
汹@@ 10
磡 10
鄭 10
漯@@ 10
庸@@ 10
凋@@ 10
地车 10
飼 10
勘 10
◦ 10
汾 10
谟 10
赣@@ 10
緒 10
偲 10
瞪@@ 10
抉@@ 10
緑 10
邢 10
ी 10
翎 10
彎 10
淤@@ 10
褒@@ 10
ʰ 10
紛 10
酗@@ 10
鬥 10
荼 10
棣 10
薰@@ 10
庐@@ 10
व 10
ื@@ 10
埗 10
鋒 10
珥 10
痫@@ 10
滔 10
縫 10
鋸 10
畿 10
➥ 10
賈 10
ີ 10
賭 10
疝 9
ら@@ 9
フ@@ 9
绉@@ 9
ừ@@ 9
ｈ@@ 9
ｔ@@ 9
蜃@@ 9
brace@@ 9
唛@@ 9
颏 9
驒 9
ử 9
叡 9
페 9
荏@@ 9
诃 9
雳@@ 9
문 9
勐@@ 9
刍 9
吼@@ 9
코 9
❻ 9
弁@@ 9
氤@@ 9
氲 9
厮@@ 9
彷@@ 9
徨 9
揿 9
颢 9
ゆ 9
邈 9
褒 9
ㄒ 9
捅 9
박 9
爸@@ 9
트 9
⑪ 9
霰@@ 9
淹 9
현 9
瘾@@ 9
侪 9
蝰@@ 9
椿@@ 9
嗷 9
炕@@ 9
ⓡ 9
타 9
姗 9
睚@@ 9
인 9
帛 9
ぎ 9
哄@@ 9
豉@@ 9
菩 9
吱@@ 9
蘑 9
妲 9
骶@@ 9
墉 9
筱 9
蹼@@ 9
오 9
堀@@ 9
瘙 9
甭 9
汲 9
飚 9
✭ 9
癀 9
沱 9
胼@@ 9
┣ 9
қ@@ 9
旖@@ 9
旎 9
龐 9
畏@@ 9
∀ 9
槓 9
ipment 9
菸 9
韻 9
肟 9
廁 9
苄@@ 9
ň@@ 9
ْ@@ 9
俬 9
諸 9
槐@@ 9
漁 9
绥 9
诅 9
奬 9
ງ@@ 9
ⅰ@@ 9
漠@@ 9
怯 9
龜 9
rehen@@ 9
蜆 9
泗 9
þ 9
鋅 9
ល@@ 9
ị@@ 9
酮@@ 9
呕 9
斥@@ 9
ـ 9
掲 9
肆@@ 9
渝@@ 9
娄@@ 9
楓 9
塚 9
狩 9
ّ@@ 9
鬧 9
獅@@ 9
屯@@ 9
ໃ@@ 9
铟 9
｡ 9
▾ 9
㎢ 9
क@@ 9
灝 9
લ@@ 9
ซ@@ 9
ম@@ 9
羡@@ 9
switzer@@ 9
偽 9
遨 9
泞 9
桅@@ 9
ธ@@ 9
甚@@ 9
咱 9
孽 9
訣 9
踊@@ 9
颐@@ 9
￠ 9
犊 9
鴨 9
耸 9
懈@@ 9
矣 9
ő@@ 9
勻 9
瑪@@ 9
憎@@ 9
颱 9
於@@ 9
ợ@@ 9
氦 9
贿 9
婉@@ 9
籠 9
挨@@ 9
陞 9
晩 9
氖@@ 8
鹉@@ 8
啮 8
剌@@ 8
サ@@ 8
シ@@ 8
パ@@ 8
ウ@@ 8
り@@ 8
跖 8
ミ@@ 8
メ@@ 8
蠔 8
ⓛ@@ 8
ⓐ@@ 8
わ@@ 8
ᴺ@@ 8
ᴸ@@ 8
ｗ@@ 8
ｃ@@ 8
讴@@ 8
ო@@ 8
鹮 8
洸 8
柰 8
づ 8
ằ 8
挟 8
聿 8
蚬@@ 8
ぱ 8
翡@@ 8
仝 8
榧 8
稚@@ 8
화 8
谛@@ 8
郡@@ 8
ỗ 8
磬 8
﹀ 8
釆 8
敍 8
ァ 8
蛞@@ 8
蝓 8
锑@@ 8
戎@@ 8
恨@@ 8
蝴 8
ㄠ 8
ภ 8
倪@@ 8
메 8
呋 8
寳 8
缷 8
㬢 8
❓ 8
渺 8
辕 8
砝 8
昙@@ 8
篆 8
楕 8
捂@@ 8
彬@@ 8
袱 8
嗖 8
馍 8
舫 8
蕯 8
雯@@ 8
生菌 8
澪 8
哔@@ 8
卞 8
溏@@ 8
장 8
浣 8
怏 8
蠵 8
羹@@ 8
诡 8
달 8
褚@@ 8
唆 8
ㄗ 8
정 8
대 8
迸 8
ソ 8
逵 8
笹 8
襟@@ 8
嬉 8
ᵁ 8
麝 8
咯@@ 8
堑 8
菰 8
掐 8
镱 8
沏 8
ˉ 8
蛊@@ 8
枧@@ 8
嗷@@ 8
睦@@ 8
뉴 8
淫@@ 8
眦 8
钌 8
크 8
嫡@@ 8
芎 8
尙 8
螫 8
尓 8
荀 8
吖@@ 8
俎 8
陨 8
焉 8
囯 8
圾 8
자 8
↙ 8
啊@@ 8
ธ 8
廻 8
悪@@ 8
疥 8
妸 8
씨 8
辕@@ 8
ほ 8
掐@@ 8
霭 8
糍 8
신 8
掬 8
瘪 8
┫ 8
皈@@ 8
⇐ 8
έ 8
脹 8
ศ@@ 8
ถ@@ 8
悖@@ 8
羧 8
蠢@@ 8
隙@@ 8
诫@@ 8
噻 8
崗 8
慾 8
湊 8
ờ@@ 8
蝦 8
絨 8
豬 8
擷 8
迄 8
传输@@ 8
ẹ@@ 8
帰 8
mosco@@ 8
櫻 8
磚 8
喫 8
抨@@ 8
氫 8
拮@@ 8
閘 8
凈 8
ຍ@@ 8
ບ@@ 8
ີ@@ 8
鄱@@ 8
叢 8
嚏 8
ড@@ 8
satell@@ 8
ຕ@@ 8
渋@@ 8
墨西@@ 8
貌@@ 8
⑵ 8
囚 8
缜@@ 8
⽛ 8
ご 8
⌘ 8
逮 8
屡@@ 8
勳 8
滥 8
瞎@@ 8
渦 8
漕@@ 8
苫 8
ű@@ 8
胁@@ 8
啞 8
歯 8
僕 8
琰 8
痉@@ 8
挛 8
屍 8
瞻@@ 8
汕 8
र@@ 8
ि@@ 8
स@@ 8
鄧 8
镂 8
虏@@ 8
보 8
毗 8
ા@@ 8
ម@@ 8
ᵈ 8
穎 8
驛 8
睾 8
奪 8
灼 8
炳 8
钠@@ 8
皑@@ 8
皑 8
喃@@ 8
∅ 8
蜱@@ 8
廟 8
⽇ 8
鍾 8
曬 8
攒 8
虔 8
ผ@@ 8
ⓒ 8
餵 8
禪 8
舗 8
┊ 8
韌 8
俸 8
ស@@ 8
ទ@@ 8
轶@@ 8
撃 8
窜 8
ʱ 8
攸@@ 8
ል@@ 8
ዩ 8
訳 8
⊡ 8
俠 8
ả@@ 8
⸄ 8
⸅ 8
傀 7
飚@@ 7
ѕ@@ 7
ㄟ@@ 7
愢 7
ʜ@@ 7
ᴀ@@ 7
ɴ@@ 7
ᴍ@@ 7
お@@ 7
ョ@@ 7
ダ@@ 7
ᴹ@@ 7
霎@@ 7
泮@@ 7
秸 7
蹚@@ 7
嫒 7
ⓜ@@ 7
ⓘ@@ 7
ⓖ@@ 7
ぼ@@ 7
う@@ 7
し@@ 7
ᴰ@@ 7
ᴼ@@ 7
ˢ@@ 7
embro@@ 7
侗@@ 7
ｙ@@ 7
ま@@ 7
つ@@ 7
疌 7
დ@@ 7
ஐ@@ 7
饡 7
ㄩ 7
狒@@ 7
狒 7
寘 7
ゼ 7
晦 7
玦 7
晏 7
敇 7
𝙋 7
𝙮 7
ḫ 7
ㄔ 7
慷 7
裾 7
⎮ 7
🤧 7
ⅿ 7
으 7
堉 7
↠ 7
鯓 7
🧙 7
薾 7
敺 7
枉 7
ぅ 7
㚂 7
🫖 7
🦳 7
⌜ 7
⌟ 7
扙 7
漾@@ 7
馡 7
慑@@ 7
 7
ꮇ 7
ꮍ 7
猗 7
魇@@ 7
㸃 7
🈷 7
𝙃 7
𝙤 7
𝙇 7
𝙛 7
ㄛ 7
鲳 7
🦝 7
ฒ 7
茴 7
藿 7
🅗 7
🅣 7
狛 7
凪 7
⛤ 7
鼹@@ 7
亁 7
帞 7
篝 7
跹 7
﹁ 7
昞 7
ㄙ 7
棹 7
籖 7
蝰 7
▵ 7
▿ 7
❽ 7
謍 7
𝙭 7
𝙈 7
𝙘 7
𝙌 7
兎 7
𝒩 7
ℯ 7
𝓌 7
𝚕 7
𝚄 7
𝚌 7
𝚘 7
𝚛 7
筿 7
⚔ 7
霏@@ 7
稑 7
𝖬 7
𝖫 7
𝖤 7
𝖭 7
↛ 7
𝟰 7
𝟲 7
褙 7
禳 7
foodp@@ 7
무 7
솔 7
撸@@ 7
 7
𝓀 7
𝓇 7
심 7
플 7
呀@@ 7
鰶 7
袓 7
塭 7
楟 7
褵 7
锗@@ 7
鲢 7
苙 7
亟 7
🧭 7
岑@@ 7
🧽 7
繄 7
˖ 7
٭ 7
𫉁 7
요 7
진 7
𝑯 7
袄@@ 7
聮 7
🥼 7
🤴 7
♱ 7
𝑷 7
缧 7
靥 7
𝙨 7
𝙢 7
韾 7
靐 7
🧮 7
에 7
蘼 7
岦 7
蚋 7
ฬ 7
吒 7
제 7
론 7
🧳 7
洺 7
惣 7
蘂 7
앤 7
斛@@ 7
🪂 7
慜 7
온 7
醴 7
鲦 7
₍ 7
₎ 7
爌 7
髟 7
靑 7
嫔 7
🅑 7
🅘 7
🅖 7
🦷 7
葭 7
🪞 7
涏 7
隷 7
✊ 7
昀@@ 7
矜@@ 7
捌@@ 7
縯 7
ỳ 7
蕥 7
림 7
캐 7
쳐 7
㼈 7
ㄜ 7
麈 7
佻 7
咛 7
鏠 7
嫂 7
䇲 7
瞟 7
̴ 7
유 7
疉 7
齁 7
🥎 7
朶 7
ォ 7
🦫 7
𝘃 7
𝗮 7
❺ 7
ᰔ 7
ᩚ 7
笤@@ 7
🤲 7
𖠢 7
𝒉 7
蚯 7
🅻 7
🅲 7
☟ 7
䌸 7
鹌 7
胇 7
🧛 7
纶@@ 7
🦚 7
𝗺 7
苖 7
왔 7
鳑@@ 7
鲏 7
𫚪 7
鲮@@ 7
襞 7
➹ 7
𫝫 7
䌷 7
梛 7
𝘸 7
𝘴 7
𝗻 7
𝗲 7
𝘂 7
⚕ 7
🤓 7
媄 7
潦 7
潽 7
蹓@@ 7
跶 7
ˆ 7
笙@@ 7
溟 7
쮸 7
杮 7
箩@@ 7
歆@@ 7
蹴@@ 7
┈ 7
═ 7
呦@@ 7
幤 7
ھ 7
‵ 7
馓@@ 7
乳酸@@ 7
↕ 7
육 7
皎@@ 7
嫰 7
趜 7
🥒 7
箘 7
矾@@ 7
𝕙 7
𝕓 7
𝕪 7
🅦 7
ĩ 7
𝙐 7
粄@@ 7
梆@@ 7
梆 7
獒@@ 7
蔟 7
🫔 7
🦙 7
楫 7
̯ 7
🤳 7
頣 7
颓 7
𫚕 7
𝙎 7
︿ 7
🦢 7
仮@@ 7
玠 7
콜 7
䨻 7
醍 7
탁 7
상 7
용 7
력 7
嬭 7
밀 7
통 7
말 7
템 7
놀 7
운 7
觚 7
裌 7
벨 7
즈 7
祤 7
🈹 7
⍥ 7
羲@@ 7
펜 7
锹@@ 7
㊕ 7
‽ 7
ॐ 7
莕 7
绅@@ 7
⑫ 7
髯 7
체 7
婲 7
ᴴ 7
ᴵ 7
ヲ 7
蝮 7
卿@@ 7
🤣 7
ᵂ 7
焠 7
➷ 7
艶 7
俫 7
枭@@ 7
赧@@ 7
🧹 7
蕬 7
圎 7
🪡 7
冴 7
嫚@@ 7
抿@@ 7
嚓 7
嘻@@ 7
疣@@ 7
͜ 7
ʕ 7
ʔ 7
ᐝ 7
춘 7
록 7
❴ 7
❵ 7
미 7
식 7
히 7
耵@@ 7
聍 7
咻 7
溂 7
⛸ 7
湮@@ 7
錾 7
诂 7
铙@@ 7
睎 7
犒 7
廼 7
礡 7
🫐 7
蛅 7
潾 7
彣 7
𫖯 7
锷 7
猋 7
⛅ 7
🧅 7
紥 7
荻@@ 7
汴 7
┌ 7
┐ 7
琸 7
🪅 7
醤 7
𝑱 7
𝑮 7
𝑿 7
𝑦 7
𝑀 7
ᴊ 7
➘ 7
筦 7
🪁 7
燮 7
豢@@ 7
罔 7
洧 7
睽@@ 7
睽 7
‪ 7
⏭ 7
⏮ 7
脤 7
♓ 7
𫠐 7
실 7
격 7
₆ 7
ũ 7
년 7
襱 7
𨱔 7
瑔 7
渽 7
婕@@ 7
幺@@ 7
幺 7
魑 7
苁@@ 7
咚@@ 7
썰 7
배 7
추 7
𥮾 7
栀 7
ở 7
瘊 7
瘊@@ 7
‐ 7
稼@@ 7
笺@@ 7
馄 7
葳@@ 7
菖 7
毬@@ 7
狞@@ 7
縂 7
ᶜ 7
敕 7
ᶻ 7
﹠ 7
높 7
백 7
︾ 7
蜙 7
凉 7
殏 7
椀 7
🈚 7
逞@@ 7
⛹ 7
鲹 7
鳉@@ 7
ẵ 7
🆚 7
楺 7
︸ 7
﹢ 7
媖 7
貮 7
廌 7
𝔀 7
🤿 7
❝ 7
❞ 7
铳 7
鬪 7
脚裤 7
⃰ 7
꙳ 7
⁎ 7
茯 7
嘣@@ 7
庛 7
厸 7
🤜 7
🤛 7
▕ 7
𝘭 7
ˣ 7
襦 7
🩲 7
🦱 7
锢 7
ぬ 7
冢@@ 7
歀 7
˒ 7
萹 7
餍 7
荨 7
𩠌 7
열 7
여 7
덟 7
순 7
滈 7
粅 7
嵔 7
圱 7
夅 7
𫟸 7
洎 7
憅 7
湓 7
鐡 7
俵 7
翩 7
蜇@@ 7
槴 7
琣 7
摹@@ 7
蚰@@ 7
信片 7
㛿 7
莨@@ 7
缥@@ 7
缈 7
绾 7
蚩@@ 7
𓈒 7
𓂂 7
𓏸 7
ỷ 7
囝 7
ㄍ 7
🃏 7
♭ 7
龅@@ 7
🫂 7
髯@@ 7
⌨ 7
翲 7
偊 7
ᴫ 7
ᴢ 7
𝗪 7
𝗨 7
𝗡 7
𝗝 7
𝗢 7
🆆 7
碴@@ 7
苞@@ 7
糀 7
痲 7
姲 7
🥃 7
볶 7
胝 7
ⓥ 7
鸵 7
姝 7
蟞 7
檞 7
ỵ 7
𝐇 7
편 7
점 7
샛 7
𢹂 7
㩗 7
麟@@ 7
頼 7
挨 7
陂 7
嵘 7
￡ 7
渲 7
प@@ 7
゜ 7
鬚 7
ų@@ 7
壤@@ 7
縛 7
膈@@ 7
膽 7
鈎 7
ল 7
堤@@ 7
亢@@ 7
擺 7
﷼ 7
肇 7
窒 7
煩 7
喆 7
傘 7
労@@ 7
搖 7
漓 7
琵 7
颅@@ 7
侄@@ 7
襪 7
ņ@@ 7
ຊ@@ 7
﹔ 7
樵 7
throu@@ 7
堯 7
劍 7
ល 7
ិ@@ 7
糾 7
涎@@ 7
饗 7
鯨 7
淤 7
撲 7
charac@@ 7
屠 7
綁 7
禱 7
芘 7
兇 7
ً@@ 7
琐@@ 7
ㆍ 7
梗@@ 7
阮@@ 7
茬 7
泸@@ 7
噶@@ 7
ِ@@ 7
歹@@ 7
瘋 7
拙 7
馀 7
躬 7
摒@@ 7
﹡ 7
✝ 7
क 7
貓@@ 7
鈥 7
ｏ@@ 7
蔘 7
盹 7
戌 7
锶 7
圜 7
觐 7
沭@@ 7
兀@@ 7
ภ@@ 7
ษ@@ 7
筵@@ 7
剽@@ 7
竅 7
ึ 7
窖@@ 7
紊@@ 7
渥 7
玷@@ 7
匣@@ 7
薛 7
綸 7
捻@@ 7
聋 7
ļ@@ 7
冀@@ 7
頃 7
滔@@ 7
冗 7
痊@@ 7
┗ 7
屑@@ 7
鏘 7
ʁ 7
廃 7
⑴ 7
燙 7
圳@@ 7
汞@@ 7
ት 7
⽅ 7
ŗ 7
婊@@ 7
応@@ 7
疇 7
ү@@ 7
胍 7
茫 7
ມ 7
ង@@ 7
戍 7
摂 7
獅 7
槃 7
盯 7
≮ 7
₺ 7
邨 7
辍@@ 7
ə@@ 7
闫@@ 6
靚 6
読 6
孛 6
剎 6
な@@ 6
ύ 6
ζ 6
袤 6
嘶@@ 6
圧@@ 6
臧 6
撫 6
榷 6
鲆 6
沦@@ 6
釀 6
蕭 6
嚇 6
啼 6
矯 6
﹖ 6
晰 6
馮 6
喚 6
轶 6
狎@@ 6
鸥@@ 6
踊 6
蠡@@ 6
郝 6
¸ 6
弛@@ 6
绊@@ 6
ј@@ 6
団@@ 6
揣 6
憲 6
潴@@ 6
辱@@ 6
岔@@ 6
巯@@ 6
ຂ@@ 6
ງ 6
佘@@ 6
扼@@ 6
姥@@ 6
ូ@@ 6
摯 6
យ@@ 6
ោ@@ 6
់ 6
牽 6
摧 6
髙 6
栃@@ 6
皺 6
钕 6
銑 6
₱ 6
邏 6
诡@@ 6
墜 6
瀾 6
ɒ 6
憂 6
ក 6
謎 6
贪 6
삼 6
ᶤ 6
鉱 6
渭@@ 6
﹒ 6
枥@@ 6
湧 6
鹳 6
联系@@ 6
again@@ 6
哌 6
甙 6
邵 6
अ 6
梣 6
諧 6
厥 6
擠 6
虽@@ 6
金 6
方向@@ 6
暉 6
簾 6
缬 6
殭@@ 6
籲 6
蔥 6
槐 6
स 6
餚 6
ડ@@ 6
ન@@ 6
ો@@ 6
ត@@ 6
匮@@ 6
䠼 6
梱 6
钡 6
迩 6
绌 6
銖 6
镦 6
銓 6
鏟 6
経@@ 6
금 6
지 6
鄙@@ 6
ᵗ 6
uary 6
⼀ 6
咧 6
溺 6
월 6
ʊ 6
ে@@ 6
聋@@ 6
∗ 6
鄙 6
ồ@@ 6
旌@@ 6
闰@@ 6
铯 6
塢 6
践 6
done@@ 6
縦 6
鹼 6
况@@ 6
吟@@ 6
ာ@@ 6
ໄ@@ 6
赃 6
瑚 6
餾 6
鄢 6
⼤ 6
վ@@ 6
扱 6
仮 6
緯 6
̃ 6
焯 6
筲@@ 6
۸ 6
⌒ 6
貯 6
０@@ 6
舅 6
ပ@@ 6
奂 6
橢 6
頌 6
年 6
舅@@ 6
絹 6
鈣 6
﹙ 6
﹚ 6
̄ 6
彥 6
۱ 6
孖 6
墻 6
藐@@ 6
陇 6
ა@@ 6
∝ 6
咄@@ 6
諒 6
≯ 6
噔 6
孪@@ 5
紮 5
籍@@ 5
妒@@ 5
馁 5
唔 5
総@@ 5
辘@@ 5
烃@@ 5
淖 5
瞰@@ 5
╳ 5
颚@@ 5
ň 5
穂 5
壩 5
奄 5
inaccur@@ 5
ǎ 5
腭@@ 5
炙@@ 5
倦@@ 5
锘 5
秧 5
囗 5
蒞 5
敝 5
脳 5
幄 5
枉@@ 5
曳@@ 5
щ 5
喪 5
郴@@ 5
ບ 5
攬 5
プ@@ 5
ラ@@ 5
铮 5
孖@@ 5
迂@@ 5
蒐 5
坊@@ 5
糅@@ 5
ź 5
吝@@ 5
啬 5
ິ 5
辜@@ 5
嘱@@ 5
ប 5
輻 5
秩 5
蒺@@ 5
繡 5
蔭 5
钇 5
ƙ@@ 5
র 5
伎@@ 5
弼 5
㈠ 5
赈@@ 5
顛 5
酉 5
毋@@ 5
ក@@ 5
ែ@@ 5
釈 5
齋 5
岡@@ 5
萘@@ 5
ء@@ 5
棗 5
ự@@ 5
亜 5
瘀@@ 5
誇 5
۱@@ 5
۹@@ 5
碛 5
朐 5
ホ@@ 5
ग 5
ญ@@ 5
跷 5
愚 5
紳 5
鱲 5
谒 5
ُ 5
豬@@ 5
渭 5
또 5
诶 5
撐 5
汾@@ 5
厭 5
奮 5
掏@@ 5
咋 5
哼 5
嘯 5
鰂 5
퍼 5
ઉ@@ 5
ડ 5
荧 5
共和@@ 5
瞧@@ 5
彝@@ 5
蛰 5
潺@@ 5
潺 5
継 5
桁 5
瘸 5
鈦 5
馳 5
嶄 5
鎧 5
陇@@ 5
亘 5
岷@@ 5
ə 5
漸 5
噼 5
灏 5
稲 5
郅 5
肱@@ 5
铒 5
狭 5
揀 5
掠 5
篦 5
窘@@ 5
靳 5
囉 5
ट 5
訝 5
駒 5
婺@@ 5
卉 5
梶 5
徜@@ 5
徉 5
枱 5
⑷ 5
俭 5
駁 5
绥@@ 5
泾@@ 5
ແ@@ 5
賛 5
េ@@ 5
恍@@ 5
惚 5
聂@@ 5
↳ 5
闘 5
謠 5
aturing 5
峭@@ 5
湍@@ 5
ປ@@ 5
娣 5
浔 5
兖@@ 5
氙 5
瘟 5
ǒ 5
ກ 5
ຈ@@ 5
丕 5
譚 5
ẵ@@ 5
ی 5
比利@@ 5
酣@@ 5
瘡 5
් 5
緹 5
眶 5
म 5
ї@@ 5
炘 5
﹤ 5
ė 5
哗 5
竊 5
瞿@@ 5
呜@@ 5
萦@@ 5
ो 5
垚 5
淳@@ 5
အ@@ 5
荻 5
አ@@ 5
ຸ@@ 5
苋 5
℠ 5
謀 5
ù@@ 5
不 5
喹 5
寢 5
潍 5
炬@@ 5
胛 5
罷 5
⽤ 5
僑 5
琨 5
弈@@ 5
त 5
∑ 5
栾 5
ំ@@ 5
铧 5
χ 5
ғ@@ 5
趙 5
悪 5
蘿 5
滌 5
効@@ 5
ወ@@ 5
ặ@@ 5
ደ 5
樘 5
љ 4
祧 4
匝@@ 4
眷 4
淵 4
欽 4
蘋 4
嬗@@ 4
ण 4
俚@@ 4
妩@@ 4
선 4
⾯ 4
芴 4
憐 4
ⅲ@@ 4
谓@@ 4
⼩ 4
懲 4
ψ@@ 4
菚 4
軬 4
indivi@@ 4
１@@ 4
匈 4
ੂ@@ 4
鉆 4
ು@@ 4
癥 4
苊 4
ッ@@ 4
吝 4
皖@@ 4
兀 4
峙 4
锟 4
饿@@ 4
纂 4
噚 4
氹 4
̧ 4
恥 4
翊@@ 4
艱 4
坍 4
犧 4
跛 4
奨 4
実@@ 4
啓 4
蔑 4
诋@@ 4
峋 4
꠸ 4
疽 4
ҳ@@ 4
慨@@ 4
羌 4
俩@@ 4
靡@@ 4
礴 4
성 4
게 4
诙@@ 4
绰 4
惶@@ 4
ヽ 4
｀ 4
舾@@ 4
腎 4
ⅶ 4
ề@@ 4
۳@@ 4
関@@ 4
滲 4
₵ 4
睁 4
㎤ 4
榫@@ 4
讪 4
淞@@ 4
锵 4
軽 4
暨@@ 4
甦 4
ູ 4
ễ@@ 4
炯 4
ฉ@@ 4
朦 4
窿 4
howe@@ 4
ज 4
巖 4
阉@@ 4
拶 4
巻 4
琢@@ 4
榆 4
ᵉ 4
巔 4
娅@@ 4
ন@@ 4
柞@@ 4
饌 4
ए 4
ĝ 4
喬@@ 4
ṣ@@ 4
谬@@ 4
甬@@ 4
躬@@ 4
嚷 4
그 4
稼 4
餡 4
蔼 4
ʳ 4
ắ@@ 4
劼 4
睹@@ 4
伶@@ 4
怆 4
脞 4
瞩 4
魄@@ 4
闆 4
酞@@ 4
র@@ 4
仑@@ 4
鹘 4
⽉ 4
趁@@ 4
疸 4
酊@@ 4
蹴 4
錨 4
頤 4
諷 4
蔣 4
殉@@ 4
鴉 4
ỹ 4
淅 4
顕 4
钏@@ 4
専@@ 4
捎 4
濮@@ 4
盂@@ 4
漁@@ 4
瓒 4
ລ 4
⅞ 4
斛 4
醌 4
儕 4
錘 4
悼@@ 4
娠@@ 4
胤 4
≌ 4
易 4
ះ@@ 4
ុ@@ 4
剝 4
ः 4
彧 4
汀@@ 4
渺@@ 4
ր@@ 4
ն 4
韡 4
າ 4
罘 4
倭 4
畝 4
إ 4
砸@@ 4
໌ 4
閑 4
ື 4
ថ 4
ៃ 4
ត 4
颞 4
铪 4
骅@@ 4
擅 4
慘 4
⑸ 4
٫ 4
鉑 4
伺 4
糗 4
ї 4
镨 4
屿@@ 4
歴@@ 4
蛔@@ 4
栓@@ 4
怯@@ 4
胬@@ 4
揣@@ 4
ト@@ 4
碚 4
į 4
ေ@@ 4
ስ@@ 4
崛 4
瓮@@ 4
詮 4
眨 4
ત 4
闰 4
蔑@@ 4
一次@@ 4
肱 4
呔 4
冉@@ 4
羥 4
坲 4
俾@@ 4
篤 4
鈺 4
崑 4
槭 4
ᵐ 4
❭ 4
ᐅ 4
ľ 4
纭 4
ť@@ 4
鹊@@ 4
ួ@@ 4
ે@@ 4
⇧ 4
ّ 4
膠@@ 4
鄄@@ 4
⑹ 4
垠 4
鳏@@ 4
唠@@ 4
祟 4
饒 4
舶@@ 4
殃 4
繊 4
ຖ@@ 4
桡@@ 4
漲 4
រ 4
铍 4
蔔 4
₦ 4
陟 4
艇@@ 4
ል 4
熒 4
攒@@ 4
ŏ@@ 4
ŏ 4
紊 4
宕 4
瞅 4
㎥ 4
瘤@@ 4
栉 4
钣 4
葺 4
痱 4
◪ 4
◩ 4
屜 3
珏 3
劾 3
惩 3
蘆 3
樺 3
犍 3
鉀 3
佢 3
咁 3
阂 3
噱@@ 3
锏 3
墾 3
潼@@ 3
渉 3
啡@@ 3
暹 3
噁 3
惘 3
裘 3
缦 3
鄺 3
憫 3
鋳 3
趸@@ 3
ত@@ 3
濁 3
╨ 3
桎@@ 3
梏 3
镝 3
痿 3
銈 3
讥@@ 3
垟 3
ｕ@@ 3
癢 3
鵝 3
珑@@ 3
峥@@ 3
徵@@ 3
樸 3
銃 3
隧 3
碲@@ 3
ਅ@@ 3
ਬ@@ 3
ਰ 3
ਨ@@ 3
誹 3
謗 3
〈 3
筐@@ 3
ಪ@@ 3
龈@@ 3
沦 3
詛 3
ィ 3
搂@@ 3
チ@@ 3
瘍 3
瑤 3
佚@@ 3
莜 3
枠 3
駄 3
菅 3
辯 3
歓 3
晷 3
ើ 3
酶@@ 3
⒏ 3
栂 3
楸 3
塬 3
黝@@ 3
茚 3
炜@@ 3
坝@@ 3
ͨ 3
埠@@ 3
倘 3
樞 3
隧@@ 3
壑 3
ẩ@@ 3
噢@@ 3
甬 3
淚 3
阑 3
鯉 3
ໍ@@ 3
ង 3
임 3
岱@@ 3
攘 3
ㄈ 3
莆 3
ল@@ 3
鸢 3
ㆍ@@ 3
侖 3
愧@@ 3
ক 3
谵@@ 3
凼@@ 3
氖 3
靳@@ 3
ュ@@ 3
愁@@ 3
煊 3
爍 3
汹 3
痹@@ 3
ຢ@@ 3
輥 3
鎌 3
櫈 3
绦@@ 3
枞@@ 3
樊 3
י@@ 3
稞 3
व@@ 3
़ 3
ह@@ 3
ວ 3
嬌 3
猝@@ 3
ब@@ 3
窺 3
逍 3
疵@@ 3
竺@@ 3
ម 3
ი@@ 3
რ@@ 3
翱 3
姦 3
謊 3
ক@@ 3
阕 3
靱 3
俚 3
戯 3
窮 3
诬@@ 3
린 3
嵩@@ 3
鳟 3
飓 3
忒 3
镲 3
褲@@ 3
邋@@ 3
遢 3
증 3
구 3
되 3
않 3
습 3
니 3
ャ@@ 3
凄@@ 3
氈 3
奧@@ 3
訕 3
菀@@ 3
胴 3
鑿 3
媛@@ 3
炅 3
衅 3
仈 3
鬱 3
驭@@ 3
滝 3
邯 3
銜 3
邺 3
鎳 3
辄 3
ţ 3
ђ 3
艉 3
賊 3
倶 3
薈 3
沣@@ 3
্ 3
鋈 3
仄 3
襲 3
犹 3
茔 3
嬴 3
瞠@@ 3
惭@@ 3
郷 3
ર@@ 3
稷 3
疖 3
镛 3
₹ 3
蠕 3
窜@@ 3
ड 3
聳 3
蒼 3
鎢 3
勖 3
巣 3
淩 3
攔 3
淄 3
錐 3
သ@@ 3
က@@ 3
း 3
椽 3
浑 3
鉅 3
綢 3
鳅 3
詰 3
鑲 3
拡 3
垮@@ 3
蛍 3
鐲 3
榊 3
ន 3
ញ 3
ជ@@ 3
ព@@ 3
ី@@ 3
鲅@@ 3
鈔 3
蕎 3
骥 3
ূ@@ 3
উ@@ 3
蜕 3
理石 3
ব 3
氘@@ 3
俳@@ 3
琥 3
陡 3
ી@@ 3
磡@@ 3
⼝ 3
壌 3
渚 3
孰 3
濤 3
骄 3
梃 3
寥@@ 3
ỏ@@ 3
鱷 3
⾃ 3
喾 3
ພ@@ 3
⽆ 3
揍 3
癖@@ 3
戛 3
ස@@ 3
拴 3
淅@@ 3
士尼 3
肽@@ 3
ភ@@ 3
禍 3
溥 3
伫@@ 3
є 3
騒 3
蛟 3
橹 3
跛@@ 3
稜 3
汴@@ 3
서 3
溧 3
覇 3
ึ@@ 3
錳 3
踵@@ 3
谑 3
涯@@ 3
铌@@ 3
涸 3
膊@@ 3
嚮 3
姉@@ 3
黧 3
燦 3
蔦 3
踵 3
亢 3
ँ 3
卒@@ 3
罈 3
加坡 3
涧 3
ြ@@ 3
င 3
့ 3
न@@ 3
ो@@ 3
ክ@@ 3
蜢 3
碉@@ 3
矾 3
ू 3
岢 3
ા 3
ર 3
零 3
度 3
鑑@@ 3
缄 3
℮ 3
利 3
忿@@ 3
㎖ 3
鯊 3
笏 3
⼼ 3
梱@@ 3
ຼ@@ 3
喔@@ 3
₼ 3
ỡ@@ 3
㎏ 3
肅 3
矗 3
譴 3
∇ 3
န@@ 3
裨@@ 3
簋@@ 3
阎 3
ฉ 3
ک 3
遴 3
璜@@ 3
ຽ@@ 3
灑 3
⼦ 3
ው@@ 3
茌@@ 3
踞 3
ស 3
雛 3
幔@@ 3
ះ 3
幀 3
鞆 3
黙 3
拋 3
嫂@@ 3
ө@@ 3
砧 3
骛 3
ো@@ 3
蟠@@ 3
暇@@ 3
餸 3
猷 3
燎@@ 3
犰@@ 3
狳 3
ٌ 3
酞 3
⼯ 3
ә@@ 3
ұ@@ 3
ң 3
手工@@ 3
睇 3
嚨 3
მ@@ 3
ს@@ 3
⒊ 3
広@@ 3
ǐ 3
۳ 3
َ 3
疟 3
ይ@@ 3
የ@@ 3
በ@@ 3
龕 3
岂@@ 3
锴 3
顫 3
煥 3
糜 3
መ@@ 3
ያ@@ 3
碶 3
仏 3
ಿ@@ 3
স@@ 3
レ@@ 3
掳 3
紉 3
祗 3
ĩ@@ 3
ሰ@@ 3
ድ 3
ስ 3
ដ@@ 3
ṇ@@ 3
ṇ 3
袍@@ 3
噼@@ 3
赭 3
ɛ@@ 3
槎 2
溱@@ 2
綉 2
瞥@@ 2
岖@@ 2
孱@@ 2
郓@@ 2
ฤ@@ 2
唔@@ 2
ु 2
ἀ@@ 2
ἀ 2
婢 2
ｊ@@ 2
ｎ@@ 2
조 2
翟@@ 2
薮 2
荩 2
例 2
漳 2
ǎ@@ 2
শ@@ 2
迥@@ 2
騨 2
靼@@ 2
拋@@ 2
늘 2
凛@@ 2
鬍 2
일 2
行 2
倆 2
懐 2
袗 2
ਕ@@ 2
ਤ@@ 2
ੰ 2
凃 2
卟@@ 2
蚜 2
ฯ 2
橋@@ 2
ಮ@@ 2
ಖ@@ 2
ಟ 2
筵 2
蓑 2
幼儿@@ 2
孀 2
懶 2
ケ 2
肓 2
铮@@ 2
倖 2
砼 2
栎@@ 2
眈@@ 2
眈 2
棲 2
遼 2
轎 2
ভ@@ 2
廪 2
窪 2
ꀰ 2
潦@@ 2
ড 2
় 2
铤 2
錠 2
ៅ@@ 2
璀 2
苜 2
辙@@ 2
ฬ@@ 2
扛@@ 2
擄 2
吭@@ 2
嶙@@ 2
缫 2
轟 2
њ@@ 2
鷗 2
佤 2
础 2
顷@@ 2
ផ 2
邳@@ 2
捎@@ 2
駱 2
ᵍ 2
醣 2
˿ 2
謬 2
羣 2
昱@@ 2
璋 2
ং@@ 2
া 2
闳 2
瘸@@ 2
釦 2
歯@@ 2
猥@@ 2
亵 2
渋 2
۴ 2
脲@@ 2
侑@@ 2
侥@@ 2
ি 2
蹑@@ 2
⚬ 2
昨 2
拙@@ 2
淪 2
衢 2
廰 2
娑 2
₫ 2
疖@@ 2
攥 2
rainf@@ 2
鞏 2
拝 2
漉 2
谴 2
敘 2
磋 2
怔@@ 2
怔 2
豸@@ 2
垩 2
窟@@ 2
⇋ 2
崃 2
渓 2
鉻 2
ע@@ 2
ב@@ 2
ר@@ 2
ת 2
壢 2
镦@@ 2
द@@ 2
त@@ 2
铡 2
안 2
내 2
涧@@ 2
隠@@ 2
₤ 2
↝ 2
嘀@@ 2
庶 2
軋 2
祚 2
겜 2
燮@@ 2
ď 2
峪@@ 2
霄@@ 2
堑@@ 2
嘔 2
踱@@ 2
駭 2
麾@@ 2
韃 2
檚 2
撅 2
鏢 2
餓 2
鼋 2
鼾@@ 2
汨@@ 2
沭 2
嚷@@ 2
러 2
브 2
소 2
프 2
铡@@ 2
匾@@ 2
氡 2
∎ 2
蓍@@ 2
鹵 2
檳 2
沌@@ 2
俶 2
キ@@ 2
テ@@ 2
蓦@@ 2
觞 2
ẳ@@ 2
祕 2
萩 2
仃 2
歹 2
靭 2
腮@@ 2
驯 2
鉸 2
炕 2
ļ 2
拴@@ 2
ণ@@ 2
ঃ 2
ῳ 2
瞼 2
迳 2
ˡ 2
ʸ 2
ট@@ 2
黔@@ 2
俨@@ 2
骇 2
閩 2
撷 2
鎂 2
骊@@ 2
哧 2
ѳ 2
蜃 2
儋@@ 2
侑 2
性恋 2
覷 2
吶 2
嚟 2
ณ@@ 2
钰@@ 2
ક@@ 2
贖 2
沓@@ 2
扈 2
嘆 2
擢@@ 2
鉬 2
硖@@ 2
蘖 2
ॉ 2
फ 2
槳 2
赡@@ 2
憎 2
鎰 2
땡 2
컵 2
밥 2
碓 2
肮 2
濫 2
စ@@ 2
嵴 2
蜓@@ 2
懵@@ 2
駆 2
鲲@@ 2
睢@@ 2
ｂ@@ 2
ｚ 2
浠@@ 2
검 2
癸@@ 2
ŭ@@ 2
旸 2
ញ@@ 2
វ@@ 2
摄像@@ 2
牀 2
攘@@ 2
箩 2
瘧 2
帥 2
渎@@ 2
釧 2
驢 2
˃ 2
ယ@@ 2
収@@ 2
祿 2
篠 2
兢 2
穏 2
ም@@ 2
ሕ@@ 2
ረ 2
豔 2
ʒ 2
エ@@ 2
燭 2
յ@@ 2
ո@@ 2
դ@@ 2
ե@@ 2
ն@@ 2
գ@@ 2
լ@@ 2
譲 2
⛾ 2
舸 2
理 2
偌 2
贼@@ 2
惮 2
黒@@ 2
铷 2
ｑ@@ 2
蝦@@ 2
岽 2
眯@@ 2
眯 2
瓊 2
熾 2
ቤ@@ 2
捨 2
懊@@ 2
ර@@ 2
晝 2
葫 2
糜@@ 2
箝 2
徇@@ 2
畈 2
︳ 2
胝@@ 2
甥 2
俐@@ 2
诧@@ 2
铀@@ 2
傍 2
鈼 2
ㅣ@@ 2
潰 2
僖 2
咦 2
羯@@ 2
ク@@ 2
░ 2
槠 2
绎@@ 2
➂ 2
懦 2
佝@@ 2
偻@@ 2
讬 2
울 2
강 2
남 2
胥 2
苑@@ 2
墳 2
憤 2
９@@ 2
荊 2
涝 2
purch@@ 2
ロ@@ 2
瘠 2
榥 2
謙 2
イ@@ 2
こ@@ 2
亂 2
煜@@ 2
骡 2
ज@@ 2
⽐ 2
瀞 2
̍ 2
舂 2
⇨ 2
ษ 2
窸@@ 2
窣 2
龔 2
隼@@ 2
ペ@@ 2
ム@@ 2
ظ 2
₃ 2
鲗@@ 2
乂 2
瞿 2
苇@@ 2
ါ 2
း@@ 2
ဖ@@ 2
踌@@ 2
躇@@ 2
芷@@ 2
茼@@ 2
ለ@@ 2
ታ@@ 2
廬 2
辗 2
蚱@@ 2
煨 2
埂 2
▓ 2
爛 2
絃 2
छ 2
魟@@ 2
엠 2
티 2
엔 2
馕 2
姣 2
繭 2
懇 2
ભ@@ 2
ભ 2
痢@@ 2
俶@@ 2
俭@@ 2
鞅 2
壘 2
阐 2
诨 2
銆 2
霊 2
愨 2
埤@@ 2
餌 2
噓 2
奠 2
巍@@ 2
椁 2
缁 2
褸 2
獐@@ 2
鳐@@ 2
赉 2
迥 2
蹊@@ 2
赓 2
颿 2
ច@@ 2
礬 2
簕 2
幌@@ 2
颧 2
ũ@@ 2
樨@@ 2
莅 2
糁 2
桓@@ 2
窓 2
ŕ 2
怂@@ 2
恿 2
矜 2
秽@@ 2
涓@@ 2
芐 2
嵐 2
讴 2
⇄ 2
渕 2
焓 2
蠻 2
牋 2
堺@@ 2
貞 2
筥 2
ئ 2
ल@@ 2
閹 2
騮 2
眸@@ 2
ώ 2
匍 2
蟌 2
┕ 2
檄 2
拗 2
ና 2
穫 2
ș 2
द 2
貶 2
訇 2
瑣 2
⽃ 2
슈 2
２@@ 2
増@@ 2
厲 2
ģ 2
醪 2
列 2
ү 2
⏎ 2
忻@@ 2
☐ 2
´@@ 2
⌥ 2
胴@@ 2
ゾ 2
礫 2
巒 2
桤 2
讃 2
衙@@ 2
ধ@@ 2
揆 2
ө 2
捲@@ 2
虧 2
隠 2
ⅵ@@ 2
霎 2
俾 2
モ@@ 2
蟄 2
য@@ 2
ખ@@ 2
ક 2
鹹 2
蹭@@ 2
斉 2
↵ 2
鑒 2
蛘 2
舐 2
ে 2
覚 2
荥@@ 2
萜 2
啷 2
汙 2
觊@@ 2
觎 2
蚴 2
苟@@ 2
邝 2
吁@@ 2
力 2
坻 2
彡 2
ိ@@ 2
မ 2
န 2
လ@@ 2
ု@@ 2
蛴 2
彫 2
嗔@@ 2
輌 2
麗@@ 2
ِ 2
袼 2
僵 2
闾 2
ể@@ 2
黉 2
碲 2
⃦ 2
矚 2
屢 2
暧 2
婺 2
赟 2
忒@@ 2
扉 2
槔 2
㈡ 2
▎ 2
繰 2
览器 2
飒@@ 2
ﬁ 2
⽰ 2
۷ 2
۹ 2
호 2
鸻 2
喙@@ 2
♯ 2
ን 2
ር@@ 2
ተ@@ 2
ር 2
ረ@@ 2
ှ@@ 2
僚@@ 2
缂 2
╂ 2
鳌@@ 2
ⅷ 2
︑ 2
碾 2
닷 2
넷 2
ẽ 2
∴ 2
岙 2
ユ@@ 2
鮪 2
泺 2
燻 2
昙 2
甯 2
˛ 2
ባ@@ 2
卅 2
⽹ 2
壕@@ 2
庁 2
郯@@ 2
赃@@ 2
猟 2
铿@@ 2
栉@@ 2
鴿 2
醂 2
兮@@ 2
주 2
輩 2
⽣ 2
涿@@ 2
幷 2
腋 2
⇓ 2
ữ@@ 2
両@@ 2
ᵒ 2
擰 2
朔@@ 2
臓 2
隘 2
娼 2
⽬ 2
怿@@ 2
༺ 2
༻ 2
⒋ 2
癮 2
ʹ 2
맨 2
猝 2
ছ@@ 2
হ 2
咣@@ 2
恣@@ 2
乞 2
蹊 2
မ@@ 2
ද@@ 2
ල 2
蔽@@ 2
気@@ 2
哂 2
堕 2
ﬂ@@ 2
嗤 2
북 2
ṅ@@ 2
ṅ 2
እ@@ 2
ቡ@@ 2
ድ@@ 2
ን@@ 2
ঐ 2
銦 2
氐 2
⼈ 2
浐@@ 2
灞 2
₨ 2
ណ@@ 2
ឹ@@ 2
៉ 2
尉@@ 2
∧ 2
훈 2
竇 2
継@@ 2
３@@ 2
伉@@ 2
碣 2
乜 2
繹 2
송 2
역 2
勧 2
麩 2
崆 2
檩@@ 2
狈 2
遅 2
呠 2
֤ 2
㎿ 2
ĸ 2
＾ 2
ビ@@ 2
栾@@ 2
↺ 2
➖ 2
凵 2
袴 2
氷 2
➁ 2
牝 2
跏 2
懼 2
老 2
惶 2
バ@@ 2
怳 2
ㇿ 2
⼠ 2
哗@@ 2
咋@@ 2
曽 2
ʁ@@ 2
℅ 2
̊ 2
邗@@ 2
綦 2
鲼 2
伲 2
噔@@ 2
➧ 2
ҷ@@ 1
昧@@ 1
猃 1
器 1
漏 1
洞 1
ु@@ 1
璧@@ 1
狡 1
赝 1
渠@@ 1
є@@ 1
墒 1
阄 1
綽 1
孊 1
陸 1
浪 1
誨 1
怚 1
怍 1
珝 1
陘 1
抭 1
瓥 1
艂 1
墀 1
⾦ 1
⻣ 1
砑 1
ী@@ 1
渾 1
╗ 1
╘ 1
坨 1
臁 1
忐 1
蒛 1
摟 1
兖 1
迺 1
雰 1
秏 1
鉗 1
狻 1
瑾@@ 1
剣@@ 1
庵@@ 1
砻 1
檜 1
煌@@ 1
咎 1
髀 1
晡 1
ฐ@@ 1
〉 1
汎 1
卹 1
ຈ 1
ຍ 1
哼@@ 1
ナ@@ 1
ケ@@ 1
们@@ 1
揖 1
寛@@ 1
竜 1
皴 1
耷@@ 1
谀@@ 1
锿 1
锃 1
ও 1
祺@@ 1
黐 1
セ@@ 1
ﬀ 1
ﬀ@@ 1
奀 1
刁@@ 1
瓴 1
罢 1
畔@@ 1
鍶 1
纾@@ 1
ទ 1
頡 1
㈣ 1
⼨ 1
闇 1
ⅸ 1
潞 1
閤 1
ŵ 1
き@@ 1
れ@@ 1
騾 1
槻 1
癲 1
癇 1
簦 1
হ@@ 1
痈@@ 1
疔@@ 1
塼 1
ӯ@@ 1
浭@@ 1
聨 1
날 1
湶 1
蠹 1
蒭 1
藁 1
疮@@ 1
痍 1
潴 1
ຜ@@ 1
鍪 1
椋 1
瞒@@ 1
陝 1
➊ 1
➋ 1
➌ 1
➍ 1
➏ 1
➐ 1
➑ 1
駝 1
琩 1
拣@@ 1
ӱ 1
䣳 1
訾@@ 1
痩 1
馑 1
⼒ 1
▋ 1
剡@@ 1
參 1
路 1
堺 1
淖@@ 1
۵ 1
怬 1
脷 1
ź@@ 1
অ 1
ধ 1
甑@@ 1
僞 1
∩ 1
锵@@ 1
闺 1
抡 1
哆@@ 1
嬷@@ 1
ヒ@@ 1
闡 1
歳@@ 1
ｓ@@ 1
嵿 1
钲 1
ຶ@@ 1
ັ 1
髭 1
ฝ@@ 1
累 1
來 1
砉 1
铕 1
瑗 1
泺@@ 1
嗐 1
簱 1
澥@@ 1
눔 1
琊@@ 1
猳 1
鏤 1
觳 1
炻@@ 1
讹@@ 1
讹 1
ぃ 1
奡 1
唬@@ 1
浃 1
臵 1
岜 1
獠@@ 1
珙 1
酉@@ 1
भ@@ 1
ू@@ 1
矸@@ 1
侩 1
僮@@ 1
輪 1
桷@@ 1
輞 1
贲@@ 1
ﻒ@@ 1
ﺗ@@ 1
ﺎ@@ 1
ﻫ 1
ា 1
觥 1
拢@@ 1
嫺 1
კ@@ 1
ვ@@ 1
ა 1
羸@@ 1
侘 1
瀅 1
ই@@ 1
ং 1
髁 1
┧ 1
撹 1
犊@@ 1
剣 1
゛ 1
藩@@ 1
祀@@ 1
ḩ@@ 1
爰 1
愆 1
앱 1
錂 1
涞 1
鉢 1
朥 1
恁 1
缢@@ 1
蛏 1
せ@@ 1
禪@@ 1
啲 1
蠱 1
베 1
ϊ@@ 1
┛ 1
┦ 1
蹋 1
槿@@ 1
诧 1
˹ 1
˼ 1
嫄 1
畎 1
嗑@@ 1
诤@@ 1
崮@@ 1
丕@@ 1
嫦 1
臊 1
葑 1
頬 1
玞 1
⾄ 1
啁@@ 1
馒@@ 1
জ@@ 1
এ 1
ম 1
萸 1
濯@@ 1
鷄 1
と@@ 1
っ@@ 1
憩@@ 1
ঘ@@ 1
盪 1
⬤ 1
褻 1
歩@@ 1
श 1
ब 1
इ 1
骶 1
鑊 1
諜 1
で@@ 1
铖 1
璶 1
燉 1
媸 1
謇 1
瑧 1
瘘@@ 1
禮 1
立 1
铎@@ 1
焓@@ 1
چ@@ 1
چ 1
潋 1
ો 1
આ 1
铄@@ 1
铄 1
僰@@ 1
嵬 1
篪 1
剀 1
ｄ@@ 1
ｅ@@ 1
潞@@ 1
睍 1
淌@@ 1
箏 1
鐐 1
銬 1
醜 1
ｱ 1
瞪 1
绦 1
觑 1
恺@@ 1
栿 1
霹 1
靂 1
嚀 1
饬 1
滯 1
儆 1
膩 1
鍲 1
ဘ@@ 1
煒 1
椴 1
髒 1
瀛@@ 1
懵 1
謨 1
祠@@ 1
筯 1
贇 1
梘 1
垴 1
鄢@@ 1
빌 1
倭@@ 1
ｚ@@ 1
哿 1
溦 1
蛭@@ 1
竪 1
嘛@@ 1
속 1
확 1
연 1
결 1
된 1
든 1
를 1
색 1
髁@@ 1
輿 1
脇 1
芴@@ 1
禀@@ 1
鑢 1
ហ@@ 1
អ 1
៊ 1
ធ@@ 1
ឯ@@ 1
ឬ@@ 1
硯 1
迤 1
鑞 1
⽂ 1
繬 1
도 1
쿄 1
疴 1
鱗 1
彝 1
桤@@ 1
찰 1
প@@ 1
য 1
ু 1
ই 1
辔 1
খ@@ 1
隘@@ 1
蛰@@ 1
睬 1
縺 1
燁 1
竑 1
欒 1
綻 1
鞲 1
骱 1
讧 1
ခ@@ 1
ု 1
阋 1
ﾋ 1
ﾞ 1
ﾙ 1
凇 1
斌@@ 1
શ@@ 1
પ@@ 1
ં@@ 1
ગ 1
糗@@ 1
⻔ 1
蜈 1
蚨 1
ፃ@@ 1
鶏 1
塍 1
郧 1
艏 1
骼@@ 1
ս 1
հ@@ 1
ծ@@ 1
ը 1
ծ 1
կ@@ 1
լ 1
ի@@ 1
惋@@ 1
埒 1
ⅹ@@ 1
⑻ 1
鹚 1
濡 1
胨 1
迢@@ 1
迢 1
蚺 1
վ 1
韭 1
迨 1
바 1
糼 1
罝 1
飇 1
冕@@ 1
楨 1
绶@@ 1
鋸@@ 1
匍@@ 1
匐 1
仟@@ 1
乐部 1
肪 1
聶 1
亙 1
嚼@@ 1
⾻ 1
⾖ 1
⻩ 1
鼇 1
蝸 1
谄@@ 1
瑢 1
颍@@ 1
魟 1
ົ 1
ຕ 1
ĺ@@ 1
愣@@ 1
曷 1
喋 1
ƽ 1
赊@@ 1
燼 1
گ@@ 1
گ 1
跬 1
烴 1
ර 1
ෆ@@ 1
ා@@ 1
ස 1
暸 1
誡 1
箕@@ 1
╴ 1
酩@@ 1
瞐 1
盩 1
驽 1
碛@@ 1
纈 1
奈 1
鋯 1
鸠@@ 1
俺 1
ព 1
讈 1
鏖@@ 1
猥 1
砀@@ 1
曁 1
咄 1
蟻 1
奌 1
斡@@ 1
鍼 1
酩 1
槎@@ 1
率 1
佘 1
绱 1
㎦ 1
蛭 1
忿 1
竄 1
骸@@ 1
⸳ 1
˜ 1
瀟 1
莒@@ 1
ㄣ 1
謅 1
镂@@ 1
석 1
諭 1
鋞 1
鸚 1
鵡 1
㾗 1
綮 1
撻 1
獺 1
囪 1
惏 1
蛳@@ 1
醺@@ 1
甥@@ 1
嗇 1
邡 1
凼 1
舾 1
カ@@ 1
উ 1
দ@@ 1
臆@@ 1
硪 1
吗@@ 1
叁@@ 1
繕 1
嘌 1
龋 1
诰 1
ȼ 1
坼 1
㈧ 1
銻 1
綵 1
ジ@@ 1
飆 1
镕@@ 1
淣 1
筚@@ 1
柝 1
斟 1
慳 1
缨@@ 1
娶@@ 1
烋 1
讐 1
啹 1
馐 1
थ@@ 1
ई 1
ट@@ 1
钐 1
塀 1
飏 1
ฮ@@ 1
麾 1
⽚ 1
卣 1
迤@@ 1
逦 1
殆@@ 1
枷@@ 1
⟩ 1
岙@@ 1
埵 1
檻 1
喟 1
涫 1
坌 1
ђ@@ 1
黠 1
讣@@ 1
蛹@@ 1
靄 1
鍮 1
枷 1
俆 1
鐺 1
鼔 1
缨 1
瘭 1
叱@@ 1
咤@@ 1
宥@@ 1
掙 1
ๆ 1
渌 1
漬 1
翀 1
惬 1
笀 1
㡨 1
썟 1
춋 1
夙@@ 1
ݿ 1
塈 1
圃@@ 1
隸 1
瀧 1
眵 1
豁 1
胥@@ 1
僭 1
朐@@ 1
玳 1
滏 1
扪 1
坳 1
런 1
砵 1
⇩ 1
楝@@ 1
芈 1
墁 1
鱂 1
蟯 1
暘 1
재 1
단 1
입 1
尧@@ 1
釬 1
饯@@ 1
粝 1
鍚 1
ｰ 1
ｰ@@ 1
ᡂ 1
槑 1
熹@@ 1
倜@@ 1
傥 1
坟 1
牯 1
冇 1
泮 1
瀨 1
藉@@ 1
役@@ 1
͵ 1
膿 1
痾 1
鉋 1
啱 1
嘈 1
ű 1
ူ 1
鉦 1
ူ@@ 1
စ 1
蚧 1
絔 1
蠓@@ 1
衲 1
綦@@ 1
谚 1
犎 1
鰨 1
戆 1
闢 1
┥ 1
徂@@ 1
脒@@ 1
タ@@ 1
⒐ 1
夙 1
夤 1
孭 1
鎵 1
艸 1
蒽@@ 1
権@@ 1
ㅇ 1
ग@@ 1
峥 1
鲽 1
탈 1
煦@@ 1
鮭 1
劏@@ 1
紓 1
繸 1
ड@@ 1
偎@@ 1
ຟ@@ 1
ຣ@@ 1
ຮ@@ 1
颕 1
ギ@@ 1
豺@@ 1
篁 1
舛 1
椯 1
勲 1
挢 1
揆@@ 1
嵋 1
櫺 1
瘻 1
妪 1
蜚@@ 1
谥 1
ॉ@@ 1
अ@@ 1
ध@@ 1
य@@ 1
廝 1
唁@@ 1
ຊ 1
ď@@ 1
錡 1
΄ 1
嚣@@ 1
ጫ@@ 1
ዊ 1
ህ@@ 1
锆@@ 1
⾜ 1
ह 1
घ 1
渃 1
娲 1
亀 1
鈞 1
锝 1
︓ 1
墟@@ 1
晖@@ 1
隣 1
齲 1
鸫 1
懺 1
柘@@ 1
啇 1
頲 1
颋 1
緝 1
嵗 1
叼 1
愕 1
ァ@@ 1
コ@@ 1
컴 1
蝙 1
諏 1
磊@@ 1
稹 1
ى@@ 1
樂 1
岣 1
北 1
⺠ 1
蔼@@ 1
憇 1
ໍ 1
ູ@@ 1
佟@@ 1
ª@@ 1
躋 1
ຝ@@ 1
ໆ 1
妍@@ 1
⑮ 1
⑭ 1
鯖 1
剡 1
澗 1
賑 1
鏻 1
濂 1
兗 1
િ@@ 1
ગ@@ 1
લ 1
骘 1
硐 1
痢 1
怞 1
萜@@ 1
嘦 1
箽 1
鄒 1
柁@@ 1
襪@@ 1
睥@@ 1
睨 1
铥 1
棣@@ 1
郸@@ 1
ˈ 1
ː 1
紺 1
聿@@ 1
韬@@ 1
跆 1
ਗ@@ 1
ਸ@@ 1
ਤ 1
⽶ 1
浔@@ 1
燧 1
ত 1
ཚ 1
钐@@ 1
笠@@ 1
㿰 1
缙 1
⒃ 1
≒ 1
僮 1
吏 1
氅 1
劦 1
酔 1
暱 1
愽 1
鉤 1
厣 1
诤 1
嬅 1
甪@@ 1
驷@@ 1
卉@@ 1
ខ@@ 1
ោ 1
ચ@@ 1
સ@@ 1
એ@@ 1
પ 1
્ 1
ટ@@ 1
鷲 1
撅@@ 1
ぞ 1
蟊 1
脘 1
郄 1
啼@@ 1
氚 1
岷 1
қ 1
虼 1
奚 1
邕@@ 1
আ 1
গ 1
蠡 1
挟@@ 1
缫@@ 1
齧 1
블 1
널 1
掤 1
捋 1
挒 1
鲛@@ 1
揸 1
刋 1
嵘@@ 1
醛@@ 1
剿 1
嗥 1
ڹ@@ 1
ܼ 1
ƭ@@ 1
鸾 1
姉 1
壱 1
濺 1
璨@@ 1
俢 1
狹 1
デ@@ 1
ド@@ 1
ニ@@ 1
⒒ 1
蠅 1
ｇ@@ 1
帜@@ 1
祟@@ 1
珺 1
槇 1
羆 1
喲 1
筲 1
瑬 1
∨ 1
芃 1
戾 1
燧@@ 1
唄 1
稣@@ 1
論 1
滓 1
穦 1
飄 1
∘ 1
鵬 1
宦 1
訶 1
降 1
兩 1
肋 1
忤 1
ည 1
ံ@@ 1
ပ 1
齑@@ 1
ⅳ@@ 1
ǀ 1
鈿 1
؛ 1
틴 1
탑 1
孿 1
斃 1
⒈ 1
茑 1
嚙 1
뀁 1
骝 1
镧@@ 1
თ@@ 1
ი 1
堍 1
閨 1
酃 1
袷 1
舻 1
莖 1
忡@@ 1
忡 1
ខ 1
ອ 1
խ@@ 1
ք@@ 1
狰@@ 1
狞 1
毓 1
摺@@ 1
椐 1
豈 1
漖 1
ｆ@@ 1
舯 1
仨 1
抿 1
岌 1
蹿 1
烀 1
忖 1
囟 1
踺@@ 1
嫉 1
庖@@ 1
橐 1
ו@@ 1
נ@@ 1
צ@@ 1
ה 1
嵊 1
狈@@ 1
த@@ 1
ம@@ 1
ி@@ 1
ழ 1
் 1
ந@@ 1
ா@@ 1
ட@@ 1
ு 1
闔 1
필 1
름 1
형 1
ˉ@@ 1
覃@@ 1
櫉 1
₄ 1
龢 1
რ 1
ჭ@@ 1
ე@@ 1
ბ@@ 1
ს 1
惦@@ 1
⼉ 1
⼊ 1
海 1
癜 1
俟 1
ւ@@ 1
ճ@@ 1
մ@@ 1
睜 1
础@@ 1
轂 1
枳 1
┙ 1
۲@@ 1
۲ 1
垵 1
ぁ 1
嗳 1
ŵ@@ 1
계 1
樓 1
贲 1
冋 1
亘@@ 1
蜷 1
罹 1
乇 1
┎ 1
ⅶ@@ 1
蕙@@ 1
醚@@ 1
鵠 1
쵠 1
ߺ 1
撾 1
藁@@ 1
妾 1
ः@@ 1
凅 1
陋@@ 1
ከ 1
ም 1
ኦ@@ 1
ቲ@@ 1
ግ@@ 1
ጄ@@ 1
ቻ@@ 1
ራ 1
疋 1
媾 1
蹿@@ 1
殓 1
델 1
糭 1
膷 1
韫 1
曛 1
皛 1
矸 1
菪 1
⒑ 1
沲 1
涔 1
抟 1
猞@@ 1
猁 1
壟 1
闖 1
讳@@ 1
钆 1
ש 1
י 1
א 1
ן 1
鴯 1
鶓 1
⽴ 1
扺 1
偕@@ 1
銮@@ 1
ਵ@@ 1
ੰ@@ 1
澀 1
喼 1
ˆ@@ 1
逕 1
繚 1
畬 1
漉@@ 1
蝗 1
ጠ@@ 1
勐 1
⽀ 1
薊 1
ķ@@ 1
よ@@ 1
膈 1
恸 1
鐸 1
曠 1
颳 1
刳 1
缬@@ 1
륭 1
원 1
獴 1
⽽ 1
樫 1
輟 1
; 1
ℊ 1
蠔@@ 1
麿 1
菘 1
塲 1
亇 1
糌@@ 1
稞@@ 1
宮@@ 1
ⅼ@@ 1
ߋ@@ 1
ⅼ 1
ߋ 1
痊 1
카 1
牦 1
唆@@ 1
↯ 1
颯 1
逬 1
狍@@ 1
刍@@ 1
嘭 1
١@@ 1
١ 1
㏄ 1
奐 1
蟠 1
砹 1
⑽ 1
锨 1
湫 1
庠 1
ሣ@@ 1
ሪ@@ 1
ዎ@@ 1
ች 1
泅@@ 1
颞@@ 1
觋 1
沓 1
捺 1
蓼@@ 1
驍 1
鑭 1
㎠ 1
粵@@ 1
惆@@ 1
怅 1
ở@@ 1
鄞 1
颔@@ 1
挙 1
怐 1
滷 1
唶 1
鍊@@ 1
ƶ@@ 1
ƶ 1
撵 1
岘 1
芍@@ 1
歎 1
ヵ 1
艮@@ 1
杳@@ 1
銭 1
瘢@@ 1
呾 1
悸@@ 1
澐 1
鳥@@ 1
蚎 1
파 1
야 1
鋳@@ 1
滁 1
意味@@ 1
ឿ@@ 1
腭 1
岜@@ 1
ᵠ@@ 1
ᵠ 1
瘼 1
逄 1
箋 1
ವ@@ 1
ಕ@@ 1
ೀ@@ 1
ಡ@@ 1
ಯ 1
繆 1
택 1
骁 1
滦@@ 1
婁 1
敎 1
梟 1
暌 1
炻 1
蒿@@ 1
琺 1
⑼ 1
囷 1
じ@@ 1
ゃ@@ 1
が@@ 1
㈢ 1
灃 1
ฯ@@ 1
擲 1
拂 1
驕 1
奓@@ 1
侣@@ 1
髂 1
檠 1
舭 1
芨@@ 1
猷@@ 1
憍 1
雚 1
辶 1
优惠@@ 1
榭@@ 1
崚 1
齣 1
妲@@ 1
ှ 1
တ 1
လ 1
頗 1
絎 1
ထ@@ 1
ျ@@ 1
ံ 1
鱈 1
锲 1
寍 1
ී@@ 1
ම@@ 1
න@@ 1
ා 1
ප@@ 1
ව@@ 1
ය@@ 1
ි 1
අ@@ 1
ප 1
ේ@@ 1
ී 1
ට 1
ඔ@@ 1
ව 1
叱 1
厳 1
噠 1
挹 1
袒 1
懿@@ 1
吆@@ 1
钅 1
庖 1
醃 1
ဟ@@ 1
ာ 1
ွ@@ 1
乒 1
悸 1
翕 1
거 1
आ 1
鲡 1
鵑 1
梨 1
የ 1
ሻ@@ 1
ቶ 1
ዎ 1
ብ@@ 1
ቻ 1
ፈ@@ 1
ሩ 1
ች@@ 1
ላ@@ 1
ሉ 1
ዚ@@ 1
ጊ@@ 1
ዜ 1
ቶ@@ 1
ᵁ@@ 1
傣@@ 1
ঙ 1
গ@@ 1
攫 1
槙 1
篡 1
鎘 1
碌@@ 1
缭 1
溲 1
戻 1
綾 1
贗 1
⻜ 1
了 1
尕 1
剋 1
堰@@ 1
皋@@ 1
歿 1
龍 1
ើ@@ 1
ៀ@@ 1
ផ@@ 1
ឆ 1
អ@@ 1
ឺ@@ 1
腩@@ 1
⾼ 1
诟@@ 1
髹 1
癡 1
盍 1
⼜ 1
衾 1
锼 1
卮 1
蠖 1
嗍 1
彿 1
砟 1
蠟@@ 1
垩@@ 1
ṛ@@ 1
ṛ 1
ṣ 1
悌 1
爀 1
濂@@ 1
煽 1
徠 1
㸸 1
垡 1
瑋 1
佧 1
謄 1
頫 1
摑 1
箇 1
诳 1
朮 1
晧 1
六 1
ḍ@@ 1
ḍ 1
鮟 1
鱇 1
硖 1
西兰 1
蠹@@ 1
邬@@ 1
滄 1
腑@@ 1
煳 1
豅 1
刂 1
唉@@ 1
弩@@ 1
坫 1
ằ@@ 1
蚂 1
栃 1
雋 1
ी@@ 1
ष@@ 1
ⓢ@@ 1
潗 1
鈑 1
惦 1
데 1
톱 1
貪 1
锖@@ 1
窯 1
菝@@ 1
葜 1
菝 1
瓏 1
砕 1
囑 1
谘@@ 1
影机 1
媪 1
糒 1
趍 1
瀘 1
诹@@ 1
鹎 1
粋 1
岀 1
ᐧ 1
샤 1
镳 1
糅 1
址@@ 1
棰 1
坷@@ 1
沔@@ 1
ǘ 1
ከ@@ 1
ማ 1
桲 1
❿ 1
誦 1
洵 1
徇 1
坩 1
俨 1
蓑@@ 1
⼚ 1
衄 1
鴞 1
腼@@ 1
腆 1
氘 1
ປ 1
镅 1
鶸 1
钚 1
劢 1
ሥ@@ 1
ነ 1
ፃ 1
糞 1
鉚 1
圝 1
臾 1
侓 1
瀋 1
ŕ@@ 1
竤 1
ゲ 1
挈 1
⽔ 1
ֻ@@ 1
幟 1
ጥ@@ 1
ቄ 1
奭 1
铱@@ 1
媳 1
売@@ 1
坳@@ 1
畛 1
粜 1
櫟 1
姝@@ 1
攫@@ 1
黩 1
昝@@ 1
铤@@ 1
昵 1
踴 1
ි@@ 1
ං@@ 1
හ@@ 1
ቤ 1
髑 1
ﾉ 1
だ@@ 1
飢 1
坷 1
搔 1
嚗 1
枰 1
雉 1
槤 1
料 1
簍 1
娑@@ 1
ህ 1
ገ 1
ፅ 1
癬 1
鹜 1
佚 1
汊 1
ራ@@ 1
ሻ 1
ጎ@@ 1
ዳ@@ 1
喏 1
搀@@ 1
逞 1
豎 1
笪 1
粳@@ 1
賀@@ 1
鰭 1
銫 1
㎟ 1
拈@@ 1
鐳 1
驣 1
皌 1
纨@@ 1
绔@@ 1
潑 1
ɐ@@ 1
ʎ@@ 1
ɐ 1
ʎ 1
嚢 1
瘴@@ 1
壅 1
ェ@@ 1
舢@@ 1
隍 1
ḷ@@ 1
囿 1
盞 1
坭 1
테 1
두 1
濛 1
笞 1
拯 1
怼 1
枒 1
鋭 1
皎 1
· 1
癱 1
瘓 1
ゲ@@ 1
ﬂ 1
镔 1
硂 1
矹 1
ズ@@ 1
ア@@ 1
濉@@ 1
蹶 1
殆 1
叟 1
鏇 1
抴 1
莢 1
窓@@ 1
濮 1
쪽 1
빔 1
ｋ@@ 1
眇 1
鈍 1
娼@@ 1
迂 1
崀@@ 1
嗤@@ 1
瞑 1
ŭ 1
및 1
茭 1
უ@@ 1
შ@@ 1
疹@@ 1
锪@@ 1
滗@@ 1
鼩 1
摰 1
ﾕ@@ 1
櫸 1
憋 1
⻅ 1
絵@@ 1
衪 1
怙@@ 1
恃 1
聴 1
溥@@ 1
ɑ 1
ː@@ 1
蚱 1
犢 1
涇 1
陼 1
濰 1
悕 1
錄 1
捩 1
嘤@@ 1
嘤 1
鯷 1
蹩@@ 1
骜 1
璣 1
掖 1
ベ@@ 1
⒍ 1
弭 1
视器 1
殓@@ 1
雷 1
镟 1
儷 1
溏 1
聼 1
ฮ 1
濎 1
љ@@ 1
㎞ 1
鈷 1
樾 1
幖 1
芑 1
妗 1
镫 1
ដ 1
柵 1
騁 1
碉 1
裇 1
⒓ 1
蒄 1
桫@@ 1
夼 1
眀 1
憊 1
⁴ 1
珞 1
閭 1
洛哥 1
衮 1
佁 1
珼 1
ለ 1
አ 1
ታ 1
ክ 1
杓@@ 1
[MASK_C] 0
[MASK_N] 0
[MASK_NS] 0
[MASK_P] 0
[U_0] 0
[U_1] 0
[U_2] 0
[U_3] 0
[U_4] 0
[U_5] 0
[U_6] 0
